{
  "version": "1.0",
  "truncation": null,
  "padding": null,
  "added_tokens": [
    {
      "id": 0,
      "content": "<unk>",
      "single_word": false,
      "lstrip": false,
      "rstrip": false,
      "normalized": false,
      "special": true
    },
    {
      "id": 1,
      "content": "<s>",
      "single_word": false,
      "lstrip": false,
      "rstrip": false,
      "normalized": false,
      "special": true
    },
    {
      "id": 2,
      "content": "</s>",
      "single_word": false,
      "lstrip": false,
      "rstrip": false,
      "normalized": false,
      "special": true
    }
  ],
  "normalizer": {
    "type": "NFKC"
  },
  "pre_tokenizer": {
    "type": "Metaspace",
    "replacement": "▁",
    "prepend_scheme": "always",
    "split": true
  },
  "post_processor": null,
  "decoder": {
    "type": "Sequence",
    "decoders": [
      {
        "type": "Metaspace",
        "replacement": "▁",
        "prepend_scheme": "always",
        "split": true
      },
      {
        "type": "ByteFallback"
      },
      {
        "type": "Fuse"
      },
      {
        "type": "Strip",
        "content": " ",
        "start": 1,
        "stop": 0
      }
    ]
  },
  "model": {
    "type": "BPE",
    "dropout": null,
    "unk_token": "<unk>",
    "continuing_subword_prefix": null,
    "end_of_word_suffix": null,
    "fuse_unk": true,
    "byte_fallback": true,
    "ignore_merges": false,
    "vocab": {
      "<unk>": 0,
      "<s>": 1,
      "</s>": 2,
      "\n": 3,
      "!": 4,
      "\"": 5,
      "#": 6,
      "$": 7,
      "%": 8,
      "&": 9,
      "'": 10,
      "(": 11,
      ")": 12,
      "*": 13,
      "+": 14,
      ",": 15,
      "-": 16,
      ".": 17,
      "/": 18,
      "0": 19,
      "1": 20,
      "2": 21,
      "3": 22,
      "4": 23,
      "5": 24,
      "6": 25,
      "7": 26,
      "8": 27,
      "9": 28,
      ":": 29,
      ";": 30,
      "<": 31,
      "=": 32,
      ">": 33,
      "?": 34,
      "@": 35,
      "A": 36,
      "B": 37,
      "C": 38,
      "D": 39,
      "E": 40,
      "F": 41,
      "G": 42,
      "H": 43,
      "I": 44,
      "J": 45,
      "K": 46,
      "L": 47,
      "M": 48,
      "N": 49,
      "O": 50,
      "P": 51,
      "Q": 52,
      "R": 53,
      "S": 54,
      "T": 55,
      "U": 56,
      "V": 57,
      "W": 58,
      "X": 59,
      "Y": 60,
      "Z": 61,
      "[": 62,
      "\\": 63,
      "]": 64,
      "^": 65,
      "_": 66,
      "`": 67,
      "a": 68,
      "b": 69,
      "c": 70,
      "d": 71,
      "e": 72,
      "f": 73,
      "g": 74,
      "h": 75,
      "i": 76,
      "j": 77,
      "k": 78,
      "l": 79,
      "m": 80,
      "n": 81,
      "o": 82,
      "p": 83,
      "q": 84,
      "r": 85,
      "s": 86,
      "t": 87,
      "u": 88,
      "v": 89,
      "w": 90,
      "x": 91,
      "y": 92,
      "z": 93,
      "|": 94,
      "}": 95,
      "~": 96,
      "¡": 97,
      "¢": 98,
      "£": 99,
      "¤": 100,
      "¥": 101,
      "¦": 102,
      "§": 103,
      "©": 104,
      "«": 105,
      "¬": 106,
      "®": 107,
      "°": 108,
      "±": 109,
      "¶": 110,
      "·": 111,
      "»": 112,
      "¿": 113,
      "À": 114,
      "Á": 115,
      "Â": 116,
      "Ã": 117,
      "Ä": 118,
      "Å": 119,
      "Æ": 120,
      "Ç": 121,
      "È": 122,
      "É": 123,
      "Ê": 124,
      "Ë": 125,
      "Í": 126,
      "Î": 127,
      "Ï": 128,
      "Ð": 129,
      "Ñ": 130,
      "Ò": 131,
      "Ó": 132,
      "Ô": 133,
      "Õ": 134,
      "Ö": 135,
      "×": 136,
      "Ø": 137,
      "Ú": 138,
      "Ü": 139,
      "Þ": 140,
      "ß": 141,
      "à": 142,
      "á": 143,
      "â": 144,
      "ã": 145,
      "ä": 146,
      "å": 147,
      "æ": 148,
      "ç": 149,
      "è": 150,
      "é": 151,
      "ê": 152,
      "ë": 153,
      "ì": 154,
      "í": 155,
      "î": 156,
      "ï": 157,
      "ð": 158,
      "ñ": 159,
      "ò": 160,
      "ó": 161,
      "ô": 162,
      "õ": 163,
      "ö": 164,
      "÷": 165,
      "ø": 166,
      "ù": 167,
      "ú": 168,
      "û": 169,
      "ü": 170,
      "ý": 171,
      "þ": 172,
      "ÿ": 173,
      "Ā": 174,
      "ā": 175,
      "ă": 176,
      "ą": 177,
      "ć": 178,
      "Č": 179,
      "č": 180,
      "ď": 181,
      "Đ": 182,
      "đ": 183,
      "Ē": 184,
      "ē": 185,
      "ĕ": 186,
      "ė": 187,
      "ę": 188,
      "ě": 189,
      "ğ": 190,
      "ħ": 191,
      "Ī": 192,
      "ī": 193,
      "ĭ": 194,
      "İ": 195,
      "ı": 196,
      "ĺ": 197,
      "Ł": 198,
      "ł": 199,
      "ń": 200,
      "ņ": 201,
      "ň": 202,
      "ŋ": 203,
      "Ō": 204,
      "ō": 205,
      "ŏ": 206,
      "ő": 207,
      "Œ": 208,
      "œ": 209,
      "ř": 210,
      "Ś": 211,
      "ś": 212,
      "Ş": 213,
      "ş": 214,
      "Š": 215,
      "š": 216,
      "ţ": 217,
      "ť": 218,
      "ū": 219,
      "ŭ": 220,
      "ů": 221,
      "ų": 222,
      "ź": 223,
      "Ż": 224,
      "ż": 225,
      "Ž": 226,
      "ž": 227,
      "ƒ": 228,
      "ơ": 229,
      "ư": 230,
      "ǎ": 231,
      "ǐ": 232,
      "ǒ": 233,
      "ǔ": 234,
      "ș": 235,
      "ț": 236,
      "ɐ": 237,
      "ɑ": 238,
      "ɒ": 239,
      "ɔ": 240,
      "ə": 241,
      "ɛ": 242,
      "ɡ": 243,
      "ɣ": 244,
      "ɨ": 245,
      "ɪ": 246,
      "ɾ": 247,
      "ʁ": 248,
      "ʃ": 249,
      "ʊ": 250,
      "ʌ": 251,
      "ʒ": 252,
      "ʔ": 253,
      "ʹ": 254,
      "ʻ": 255,
      "ʼ": 256,
      "ʾ": 257,
      "ʿ": 258,
      "ˆ": 259,
      "ˈ": 260,
      "ˌ": 261,
      "ː": 262,
      "́": 263,
      "̃": 264,
      "̄": 265,
      "̆": 266,
      "̇": 267,
      "̈": 268,
      "̊": 269,
      "̓": 270,
      "̧": 271,
      "̯": 272,
      "̲": 273,
      "͡": 274,
      "Α": 275,
      "Β": 276,
      "Γ": 277,
      "Δ": 278,
      "Ε": 279,
      "Η": 280,
      "Θ": 281,
      "Ι": 282,
      "Κ": 283,
      "Λ": 284,
      "Μ": 285,
      "Ν": 286,
      "Ο": 287,
      "Π": 288,
      "Σ": 289,
      "Τ": 290,
      "Φ": 291,
      "Χ": 292,
      "Ψ": 293,
      "Ω": 294,
      "ά": 295,
      "έ": 296,
      "ή": 297,
      "ί": 298,
      "α": 299,
      "β": 300,
      "γ": 301,
      "δ": 302,
      "ε": 303,
      "ζ": 304,
      "η": 305,
      "θ": 306,
      "ι": 307,
      "κ": 308,
      "λ": 309,
      "μ": 310,
      "ν": 311,
      "ξ": 312,
      "ο": 313,
      "π": 314,
      "ρ": 315,
      "ς": 316,
      "σ": 317,
      "τ": 318,
      "υ": 319,
      "φ": 320,
      "χ": 321,
      "ψ": 322,
      "ω": 323,
      "ό": 324,
      "ύ": 325,
      "ώ": 326,
      "Ђ": 327,
      "А": 328,
      "Б": 329,
      "В": 330,
      "Г": 331,
      "Д": 332,
      "Е": 333,
      "З": 334,
      "И": 335,
      "К": 336,
      "Л": 337,
      "М": 338,
      "Н": 339,
      "О": 340,
      "П": 341,
      "Р": 342,
      "С": 343,
      "Т": 344,
      "У": 345,
      "Ф": 346,
      "Х": 347,
      "Ц": 348,
      "Ч": 349,
      "Э": 350,
      "Я": 351,
      "а": 352,
      "б": 353,
      "в": 354,
      "г": 355,
      "д": 356,
      "е": 357,
      "ж": 358,
      "з": 359,
      "и": 360,
      "й": 361,
      "к": 362,
      "л": 363,
      "м": 364,
      "н": 365,
      "о": 366,
      "п": 367,
      "р": 368,
      "с": 369,
      "т": 370,
      "у": 371,
      "ф": 372,
      "х": 373,
      "ц": 374,
      "ч": 375,
      "ш": 376,
      "щ": 377,
      "ъ": 378,
      "ы": 379,
      "ь": 380,
      "э": 381,
      "ю": 382,
      "я": 383,
      "ё": 384,
      "ѕ": 385,
      "і": 386,
      "ї": 387,
      "ј": 388,
      "ա": 389,
      "ե": 390,
      "ն": 391,
      "ո": 392,
      "ր": 393,
      "ְ": 394,
      "ֲ": 395,
      "ִ": 396,
      "ֵ": 397,
      "ֶ": 398,
      "ַ": 399,
      "ָ": 400,
      "ֹ": 401,
      "ּ": 402,
      "ֽ": 403,
      "־": 404,
      "ׁ": 405,
      "ׂ": 406,
      "א": 407,
      "ב": 408,
      "ג": 409,
      "ד": 410,
      "ה": 411,
      "ו": 412,
      "ז": 413,
      "ח": 414,
      "ט": 415,
      "י": 416,
      "ך": 417,
      "כ": 418,
      "ל": 419,
      "ם": 420,
      "מ": 421,
      "ן": 422,
      "נ": 423,
      "ס": 424,
      "ע": 425,
      "פ": 426,
      "צ": 427,
      "ק": 428,
      "ר": 429,
      "ש": 430,
      "ת": 431,
      "،": 432,
      "ء": 433,
      "آ": 434,
      "أ": 435,
      "إ": 436,
      "ئ": 437,
      "ا": 438,
      "ب": 439,
      "ة": 440,
      "ت": 441,
      "ث": 442,
      "ج": 443,
      "ح": 444,
      "خ": 445,
      "د": 446,
      "ذ": 447,
      "ر": 448,
      "ز": 449,
      "س": 450,
      "ش": 451,
      "ص": 452,
      "ض": 453,
      "ط": 454,
      "ظ": 455,
      "ع": 456,
      "غ": 457,
      "ـ": 458,
      "ف": 459,
      "ق": 460,
      "ك": 461,
      "ل": 462,
      "م": 463,
      "ن": 464,
      "ه": 465,
      "و": 466,
      "ى": 467,
      "ي": 468,
      "ً": 469,
      "ٌ": 470,
      "ٍ": 471,
      "َ": 472,
      "ُ": 473,
      "ِ": 474,
      "ّ": 475,
      "ْ": 476,
      "ٰ": 477,
      "پ": 478,
      "چ": 479,
      "ک": 480,
      "گ": 481,
      "ہ": 482,
      "ی": 483,
      "ے": 484,
      "ۡ": 485,
      "ं": 486,
      "ः": 487,
      "अ": 488,
      "आ": 489,
      "इ": 490,
      "उ": 491,
      "ए": 492,
      "क": 493,
      "ख": 494,
      "ग": 495,
      "च": 496,
      "ज": 497,
      "ट": 498,
      "ड": 499,
      "ण": 500,
      "त": 501,
      "थ": 502,
      "द": 503,
      "ध": 504,
      "न": 505,
      "प": 506,
      "फ": 507,
      "ब": 508,
      "भ": 509,
      "म": 510,
      "य": 511,
      "र": 512,
      "ल": 513,
      "व": 514,
      "श": 515,
      "ष": 516,
      "स": 517,
      "ह": 518,
      "़": 519,
      "ा": 520,
      "ि": 521,
      "ी": 522,
      "ु": 523,
      "ू": 524,
      "ृ": 525,
      "े": 526,
      "ै": 527,
      "ो": 528,
      "ौ": 529,
      "्": 530,
      "।": 531,
      "॥": 532,
      "ক": 533,
      "ত": 534,
      "ন": 535,
      "ব": 536,
      "ম": 537,
      "য": 538,
      "র": 539,
      "ল": 540,
      "স": 541,
      "া": 542,
      "ি": 543,
      "ে": 544,
      "্": 545,
      "ਰ": 546,
      "ਾ": 547,
      "க": 548,
      "ச": 549,
      "ட": 550,
      "த": 551,
      "ன": 552,
      "ப": 553,
      "ம": 554,
      "ய": 555,
      "ர": 556,
      "ல": 557,
      "வ": 558,
      "ா": 559,
      "ி": 560,
      "ு": 561,
      "ை": 562,
      "்": 563,
      "ు": 564,
      "్": 565,
      "್": 566,
      "്": 567,
      "්": 568,
      "ก": 569,
      "ค": 570,
      "ง": 571,
      "ด": 572,
      "ต": 573,
      "ท": 574,
      "น": 575,
      "บ": 576,
      "ม": 577,
      "ย": 578,
      "ร": 579,
      "ล": 580,
      "ว": 581,
      "ส": 582,
      "ห": 583,
      "อ": 584,
      "ั": 585,
      "า": 586,
      "ิ": 587,
      "ี": 588,
      "เ": 589,
      "่": 590,
      "้": 591,
      "་": 592,
      "်": 593,
      "ა": 594,
      "ე": 595,
      "ი": 596,
      "រ": 597,
      "ា": 598,
      "្": 599,
      "ḍ": 600,
      "ḡ": 601,
      "Ḥ": 602,
      "ḥ": 603,
      "ḳ": 604,
      "ḵ": 605,
      "ḷ": 606,
      "ṁ": 607,
      "ṃ": 608,
      "ṅ": 609,
      "ṇ": 610,
      "ṛ": 611,
      "Ṣ": 612,
      "ṣ": 613,
      "Ṭ": 614,
      "ṭ": 615,
      "ẓ": 616,
      "ạ": 617,
      "ả": 618,
      "ấ": 619,
      "ầ": 620,
      "ậ": 621,
      "ế": 622,
      "ề": 623,
      "ễ": 624,
      "ệ": 625,
      "ị": 626,
      "ọ": 627,
      "ố": 628,
      "ồ": 629,
      "ộ": 630,
      "ớ": 631,
      "ờ": 632,
      "ἀ": 633,
      "ἄ": 634,
      "Ἀ": 635,
      "ἐ": 636,
      "ἔ": 637,
      "ἡ": 638,
      "ἰ": 639,
      "ἱ": 640,
      "ὁ": 641,
      "ὐ": 642,
      "ὑ": 643,
      "ὰ": 644,
      "ὲ": 645,
      "ὴ": 646,
      "ὶ": 647,
      "ὸ": 648,
      "ῆ": 649,
      "ῖ": 650,
      "ῦ": 651,
      "ῶ": 652,
      "‐": 653,
      "‒": 654,
      "–": 655,
      "—": 656,
      "―": 657,
      "‖": 658,
      "‘": 659,
      "’": 660,
      "‚": 661,
      "“": 662,
      "”": 663,
      "„": 664,
      "‟": 665,
      "†": 666,
      "‡": 667,
      "•": 668,
      "‰": 669,
      "′": 670,
      "‹": 671,
      "›": 672,
      "⁄": 673,
      "€": 674,
      "₹": 675,
      "←": 676,
      "↑": 677,
      "→": 678,
      "↓": 679,
      "↩": 680,
      "↵": 681,
      "⇒": 682,
      "∂": 683,
      "∆": 684,
      "∑": 685,
      "−": 686,
      "∗": 687,
      "∘": 688,
      "∙": 689,
      "√": 690,
      "∞": 691,
      "∠": 692,
      "∼": 693,
      "≈": 694,
      "≠": 695,
      "≡": 696,
      "≤": 697,
      "≥": 698,
      "⋅": 699,
      "─": 700,
      "│": 701,
      "├": 702,
      "▁": 703,
      "█": 704,
      "■": 705,
      "□": 706,
      "▪": 707,
      "▲": 708,
      "▶": 709,
      "▸": 710,
      "►": 711,
      "▼": 712,
      "◆": 713,
      "○": 714,
      "●": 715,
      "◦": 716,
      "◯": 717,
      "★": 718,
      "☆": 719,
      "☎": 720,
      "☏": 721,
      "♥": 722,
      "♦": 723,
      "♪": 724,
      "♭": 725,
      "♯": 726,
      "✅": 727,
      "✓": 728,
      "✔": 729,
      "⟨": 730,
      "⟩": 731,
      "⠀": 732,
      "⦁": 733,
      "⭐": 734,
      "、": 735,
      "。": 736,
      "《": 737,
      "》": 738,
      "「": 739,
      "」": 740,
      "【": 741,
      "】": 742,
      "あ": 743,
      "い": 744,
      "う": 745,
      "お": 746,
      "か": 747,
      "が": 748,
      "き": 749,
      "く": 750,
      "け": 751,
      "こ": 752,
      "さ": 753,
      "し": 754,
      "す": 755,
      "た": 756,
      "だ": 757,
      "ち": 758,
      "っ": 759,
      "つ": 760,
      "て": 761,
      "で": 762,
      "と": 763,
      "な": 764,
      "に": 765,
      "の": 766,
      "は": 767,
      "ま": 768,
      "も": 769,
      "よ": 770,
      "ら": 771,
      "り": 772,
      "る": 773,
      "れ": 774,
      "を": 775,
      "ん": 776,
      "イ": 777,
      "ク": 778,
      "ス": 779,
      "ッ": 780,
      "ト": 781,
      "ラ": 782,
      "リ": 783,
      "ル": 784,
      "ン": 785,
      "・": 786,
      "ー": 787,
      "一": 788,
      "三": 789,
      "上": 790,
      "下": 791,
      "不": 792,
      "与": 793,
      "世": 794,
      "个": 795,
      "中": 796,
      "为": 797,
      "主": 798,
      "之": 799,
      "也": 800,
      "了": 801,
      "事": 802,
      "二": 803,
      "于": 804,
      "五": 805,
      "人": 806,
      "从": 807,
      "他": 808,
      "代": 809,
      "以": 810,
      "们": 811,
      "会": 812,
      "体": 813,
      "作": 814,
      "你": 815,
      "使": 816,
      "例": 817,
      "信": 818,
      "元": 819,
      "入": 820,
      "全": 821,
      "公": 822,
      "关": 823,
      "其": 824,
      "内": 825,
      "出": 826,
      "分": 827,
      "到": 828,
      "前": 829,
      "力": 830,
      "加": 831,
      "动": 832,
      "化": 833,
      "北": 834,
      "十": 835,
      "南": 836,
      "原": 837,
      "去": 838,
      "及": 839,
      "发": 840,
      "句": 841,
      "可": 842,
      "史": 843,
      "合": 844,
      "同": 845,
      "名": 846,
      "后": 847,
      "和": 848,
      "四": 849,
      "因": 850,
      "国": 851,
      "國": 852,
      "在": 853,
      "地": 854,
      "外": 855,
      "多": 856,
      "大": 857,
      "天": 858,
      "太": 859,
      "好": 860,
      "如": 861,
      "子": 862,
      "字": 863,
      "学": 864,
      "學": 865,
      "安": 866,
      "定": 867,
      "家": 868,
      "对": 869,
      "小": 870,
      "就": 871,
      "山": 872,
      "工": 873,
      "市": 874,
      "常": 875,
      "平": 876,
      "年": 877,
      "度": 878,
      "式": 879,
      "形": 880,
      "得": 881,
      "心": 882,
      "思": 883,
      "性": 884,
      "意": 885,
      "成": 886,
      "我": 887,
      "或": 888,
      "所": 889,
      "手": 890,
      "提": 891,
      "教": 892,
      "数": 893,
      "文": 894,
      "新": 895,
      "方": 896,
      "日": 897,
      "时": 898,
      "明": 899,
      "是": 900,
      "時": 901,
      "書": 902,
      "最": 903,
      "月": 904,
      "有": 905,
      "期": 906,
      "本": 907,
      "来": 908,
      "果": 909,
      "正": 910,
      "比": 911,
      "民": 912,
      "水": 913,
      "法": 914,
      "海": 915,
      "点": 916,
      "為": 917,
      "然": 918,
      "版": 919,
      "物": 920,
      "特": 921,
      "王": 922,
      "现": 923,
      "理": 924,
      "生": 925,
      "用": 926,
      "由": 927,
      "白": 928,
      "的": 929,
      "目": 930,
      "相": 931,
      "知": 932,
      "研": 933,
      "示": 934,
      "社": 935,
      "神": 936,
      "科": 937,
      "究": 938,
      "第": 939,
      "等": 940,
      "答": 941,
      "系": 942,
      "美": 943,
      "考": 944,
      "者": 945,
      "而": 946,
      "能": 947,
      "自": 948,
      "英": 949,
      "行": 950,
      "表": 951,
      "西": 952,
      "要": 953,
      "解": 954,
      "言": 955,
      "語": 956,
      "词": 957,
      "语": 958,
      "说": 959,
      "过": 960,
      "这": 961,
      "选": 962,
      "通": 963,
      "道": 964,
      "部": 965,
      "都": 966,
      "重": 967,
      "金": 968,
      "间": 969,
      "面": 970,
      "音": 971,
      "题": 972,
      "高": 973,
      "가": 974,
      "국": 975,
      "기": 976,
      "는": 977,
      "다": 978,
      "로": 979,
      "리": 980,
      "사": 981,
      "서": 982,
      "시": 983,
      "어": 984,
      "에": 985,
      "요": 986,
      "은": 987,
      "을": 988,
      "의": 989,
      "이": 990,
      "정": 991,
      "제": 992,
      "지": 993,
      "하": 994,
      "한": 995,
      "︎": 996,
      "️": 997,
      "�": 998,
      "👉": 999,
      "😉": 1000,
      "🙂": 1001,
      "🤍": 1002,
      "▁t": 1003,
      "▁a": 1004,
      "he": 1005,
      "in": 1006,
      "re": 1007,
      "▁the": 1008,
      "on": 1009,
      "er": 1010,
      "▁o": 1011,
      "at": 1012,
      "▁s": 1013,
      "en": 1014,
      "▁c": 1015,
      "es": 1016,
      "▁w": 1017,
      "is": 1018,
      "nd": 1019,
      "it": 1020,
      "or": 1021,
      "▁p": 1022,
      "al": 1023,
      "▁b": 1024,
      "ed": 1025,
      "an": 1026,
      "▁of": 1027,
      "▁f": 1028,
      "ing": 1029,
      "▁in": 1030,
      "ou": 1031,
      "ar": 1032,
      "▁m": 1033,
      "▁and": 1034,
      "▁to": 1035,
      "ic": 1036,
      "▁d": 1037,
      "ion": 1038,
      "le": 1039,
      "ro": 1040,
      "as": 1041,
      "▁h": 1042,
      "ent": 1043,
      "▁th": 1044,
      "ct": 1045,
      "▁e": 1046,
      "il": 1047,
      "▁re": 1048,
      "om": 1049,
      "ve": 1050,
      "▁l": 1051,
      "st": 1052,
      "▁n": 1053,
      ".\n": 1054,
      "ly": 1055,
      "▁be": 1056,
      "▁is": 1057,
      "▁T": 1058,
      "se": 1059,
      "ol": 1060,
      "▁g": 1061,
      "ation": 1062,
      "im": 1063,
      "id": 1064,
      "et": 1065,
      "ut": 1066,
      "ce": 1067,
      "ot": 1068,
      "ur": 1069,
      "ra": 1070,
      "ch": 1071,
      "ow": 1072,
      "▁A": 1073,
      "▁for": 1074,
      "ig": 1075,
      "▁u": 1076,
      "▁S": 1077,
      "▁that": 1078,
      "▁on": 1079,
      "▁st": 1080,
      "ver": 1081,
      "▁y": 1082,
      "ir": 1083,
      "▁C": 1084,
      "▁I": 1085,
      "ul": 1086,
      "ay": 1087,
      "am": 1088,
      "▁as": 1089,
      "ith": 1090,
      "s,": 1091,
      "el": 1092,
      "ad": 1093,
      "▁pro": 1094,
      "her": 1095,
      "▁are": 1096,
      "▁con": 1097,
      "▁an": 1098,
      "▁with": 1099,
      "if": 1100,
      "▁you": 1101,
      "▁wh": 1102,
      "▁it": 1103,
      "▁or": 1104,
      "▁al": 1105,
      "od": 1106,
      "ter": 1107,
      "▁The": 1108,
      "▁M": 1109,
      "▁(": 1110,
      "ment": 1111,
      "ge": 1112,
      "▁P": 1113,
      "▁1": 1114,
      "th": 1115,
      "op": 1116,
      "ate": 1117,
      "ist": 1118,
      "▁de": 1119,
      "ill": 1120,
      "ies": 1121,
      "ab": 1122,
      "▁he": 1123,
      "▁ex": 1124,
      "▁B": 1125,
      "▁su": 1126,
      "ess": 1127,
      "ect": 1128,
      "▁we": 1129,
      "ore": 1130,
      "▁com": 1131,
      "ers": 1132,
      "ity": 1133,
      "est": 1134,
      "▁ha": 1135,
      "ive": 1136,
      "ac": 1137,
      "us": 1138,
      "▁H": 1139,
      "um": 1140,
      "rom": 1141,
      "ld": 1142,
      "res": 1143,
      "▁v": 1144,
      "ke": 1145,
      "os": 1146,
      "ant": 1147,
      "▁by": 1148,
      "em": 1149,
      "qu": 1150,
      "iv": 1151,
      "▁W": 1152,
      "ain": 1153,
      "nt": 1154,
      "▁at": 1155,
      "pp": 1156,
      "igh": 1157,
      "s.": 1158,
      "▁D": 1159,
      "▁can": 1160,
      "ud": 1161,
      "▁was": 1162,
      "▁E": 1163,
      "▁from": 1164,
      "▁ch": 1165,
      "oc": 1166,
      "and": 1167,
      "▁r": 1168,
      "ort": 1169,
      "▁R": 1170,
      "▁ne": 1171,
      "▁F": 1172,
      "ial": 1173,
      "▁se": 1174,
      "ure": 1175,
      "▁2": 1176,
      "un": 1177,
      "▁not": 1178,
      "▁le": 1179,
      "ical": 1180,
      "art": 1181,
      "▁N": 1182,
      "▁G": 1183,
      "▁have": 1184,
      "ri": 1185,
      "▁L": 1186,
      "og": 1187,
      "▁sh": 1188,
      "▁en": 1189,
      "▁sp": 1190,
      "▁this": 1191,
      "pt": 1192,
      "ight": 1193,
      "▁wor": 1194,
      "▁ab": 1195,
      "ich": 1196,
      "rou": 1197,
      "all": 1198,
      "red": 1199,
      "’s": 1200,
      "ould": 1201,
      "ost": 1202,
      "00": 1203,
      "ther": 1204,
      "our": 1205,
      "gh": 1206,
      "ome": 1207,
      "du": 1208,
      "▁im": 1209,
      "ated": 1210,
      "per": 1211,
      "ine": 1212,
      "The": 1213,
      "▁pl": 1214,
      "ag": 1215,
      "out": 1216,
      "ard": 1217,
      "▁us": 1218,
      "act": 1219,
      "▁their": 1220,
      "ell": 1221,
      "ff": 1222,
      "ide": 1223,
      "▁int": 1224,
      "pl": 1225,
      "▁O": 1226,
      "ear": 1227,
      "ast": 1228,
      "age": 1229,
      "ak": 1230,
      "ust": 1231,
      "▁your": 1232,
      "▁which": 1233,
      "▁k": 1234,
      "▁whe": 1235,
      "▁J": 1236,
      "ec": 1237,
      "▁they": 1238,
      "iz": 1239,
      "▁U": 1240,
      "ood": 1241,
      "▁ad": 1242,
      "ult": 1243,
      "▁all": 1244,
      "▁In": 1245,
      "▁will": 1246,
      "▁cont": 1247,
      "ib": 1248,
      "ions": 1249,
      "ous": 1250,
      "▁inc": 1251,
      "end": 1252,
      "cc": 1253,
      "ans": 1254,
      "ru": 1255,
      "▁dis": 1256,
      "▁comp": 1257,
      "▁more": 1258,
      "ap": 1259,
      "▁res": 1260,
      "ong": 1261,
      "ip": 1262,
      "vel": 1263,
      "ia": 1264,
      "▁has": 1265,
      "ew": 1266,
      "es,": 1267,
      "ere": 1268,
      "so": 1269,
      "▁do": 1270,
      "orm": 1271,
      "ary": 1272,
      "e,": 1273,
      "ater": 1274,
      "▁Th": 1275,
      "are": 1276,
      "able": 1277,
      "ence": 1278,
      "ild": 1279,
      "▁man": 1280,
      "▁cl": 1281,
      "ual": 1282,
      "▁other": 1283,
      "▁but": 1284,
      "ry": 1285,
      "▁were": 1286,
      "ind": 1287,
      "▁“": 1288,
      "▁per": 1289,
      "\n-": 1290,
      "ep": 1291,
      "▁imp": 1292,
      "▁te": 1293,
      "ance": 1294,
      "ok": 1295,
      "ach": 1296,
      "▁also": 1297,
      "ition": 1298,
      "▁me": 1299,
      "ction": 1300,
      "ose": 1301,
      "reat": 1302,
      "▁one": 1303,
      "ign": 1304,
      "ake": 1305,
      "'s": 1306,
      "ations": 1307,
      "av": 1308,
      "au": 1309,
      "ack": 1310,
      "▁j": 1311,
      "▁so": 1312,
      "▁19": 1313,
      "ber": 1314,
      "▁out": 1315,
      "▁un": 1316,
      "ass": 1317,
      "▁app": 1318,
      "very": 1319,
      "▁ar": 1320,
      "▁tim": 1321,
      "▁part": 1322,
      ".\nThe": 1323,
      "▁stud": 1324,
      "▁about": 1325,
      "ord": 1326,
      "ace": 1327,
      "ress": 1328,
      "▁ev": 1329,
      "ory": 1330,
      "ount": 1331,
      "ire": 1332,
      "ents": 1333,
      "ish": 1334,
      "▁St": 1335,
      "ase": 1336,
      "▁who": 1337,
      "▁pe": 1338,
      "▁inf": 1339,
      "one": 1340,
      "▁sy": 1341,
      "ric": 1342,
      "▁work": 1343,
      "▁his": 1344,
      "▁comm": 1345,
      "ub": 1346,
      "▁them": 1347,
      "▁sc": 1348,
      "ang": 1349,
      "ame": 1350,
      "ens": 1351,
      "ike": 1352,
      "▁K": 1353,
      "ound": 1354,
      "▁pre": 1355,
      "olog": 1356,
      "now": 1357,
      "low": 1358,
      "▁It": 1359,
      "rit": 1360,
      "▁bec": 1361,
      "▁up": 1362,
      "ree": 1363,
      "ice": 1364,
      "ue": 1365,
      "▁may": 1366,
      "▁qu": 1367,
      "y,": 1368,
      "iff": 1369,
      "▁than": 1370,
      "ile": 1371,
      "es.": 1372,
      "ian": 1373,
      "▁\"": 1374,
      "ook": 1375,
      "ople": 1376,
      "ie": 1377,
      "▁rec": 1378,
      "▁some": 1379,
      ".\n-": 1380,
      "▁year": 1381,
      "▁Ch": 1382,
      "ail": 1383,
      "▁been": 1384,
      "▁when": 1385,
      "nder": 1386,
      "▁20": 1387,
      "▁there": 1388,
      "mer": 1389,
      "▁its": 1390,
      "▁into": 1391,
      "ren": 1392,
      "ough": 1393,
      "▁This": 1394,
      "▁go": 1395,
      "▁tra": 1396,
      "▁ag": 1397,
      "ph": 1398,
      "▁over": 1399,
      "ces": 1400,
      "ite": 1401,
      "▁diff": 1402,
      "▁these": 1403,
      "erv": 1404,
      "▁how": 1405,
      "▁people": 1406,
      "▁ro": 1407,
      "▁V": 1408,
      "ally": 1409,
      "rough": 1410,
      "lud": 1411,
      "ors": 1412,
      "ause": 1413,
      "ing,": 1414,
      "▁cons": 1415,
      "iver": 1416,
      "▁use": 1417,
      "ond": 1418,
      "▁3": 1419,
      "ific": 1420,
      "▁col": 1421,
      "▁tr": 1422,
      "te": 1423,
      "▁ra": 1424,
      "ll": 1425,
      "tern": 1426,
      "▁our": 1427,
      "ove": 1428,
      "▁bet": 1429,
      "▁had": 1430,
      "we": 1431,
      "alth": 1432,
      "int": 1433,
      "▁most": 1434,
      "▁act": 1435,
      "▁like": 1436,
      "ities": 1437,
      "irst": 1438,
      "▁know": 1439,
      "▁under": 1440,
      "lic": 1441,
      "▁sa": 1442,
      "▁bl": 1443,
      "ays": 1444,
      "▁acc": 1445,
      "▁Y": 1446,
      "row": 1447,
      "▁des": 1448,
      "ject": 1449,
      "lect": 1450,
      "velop": 1451,
      "▁would": 1452,
      "ient": 1453,
      "stem": 1454,
      "ffect": 1455,
      "ys": 1456,
      "▁need": 1457,
      "▁new": 1458,
      "▁tw": 1459,
      "▁rel": 1460,
      "ates": 1461,
      "erm": 1462,
      ").": 1463,
      "▁such": 1464,
      "ning": 1465,
      "▁time": 1466,
      "ons": 1467,
      "ious": 1468,
      "▁rep": 1469,
      "▁if": 1470,
      "ark": 1471,
      "▁child": 1472,
      "▁hel": 1473,
      "▁gen": 1474,
      "▁includ": 1475,
      "ob": 1476,
      "ational": 1477,
      "▁any": 1478,
      ".\nA": 1479,
      "ative": 1480,
      "ram": 1481,
      "ple": 1482,
      "hed": 1483,
      "ink": 1484,
      "ular": 1485,
      "▁help": 1486,
      "ings": 1487,
      "▁what": 1488,
      ".\nI": 1489,
      "ced": 1490,
      "▁ph": 1491,
      "▁used": 1492,
      "yp": 1493,
      "▁produ": 1494,
      "▁only": 1495,
      "ool": 1496,
      "ov": 1497,
      "cess": 1498,
      "▁ind": 1499,
      "▁prov": 1500,
      "▁no": 1501,
      "▁am": 1502,
      "▁develop": 1503,
      "ating": 1504,
      "▁off": 1505,
      "▁through": 1506,
      "▁first": 1507,
      "▁many": 1508,
      "ck": 1509,
      "▁fe": 1510,
      "),": 1511,
      "▁spec": 1512,
      "▁Un": 1513,
      "ath": 1514,
      "..": 1515,
      "fter": 1516,
      "round": 1517,
      "iet": 1518,
      "les": 1519,
      "▁reg": 1520,
      "▁em": 1521,
      "▁pr": 1522,
      "▁exp": 1523,
      "▁po": 1524,
      "▁differe": 1525,
      "hen": 1526,
      "uring": 1527,
      "ful": 1528,
      "▁two": 1529,
      "▁system": 1530,
      "rib": 1531,
      "oth": 1532,
      "▁ac": 1533,
      "eth": 1534,
      "oss": 1535,
      "ments": 1536,
      "iss": 1537,
      "ied": 1538,
      "rop": 1539,
      "▁ob": 1540,
      "ility": 1541,
      "old": 1542,
      "▁201": 1543,
      "▁ass": 1544,
      "ne": 1545,
      "ased": 1546,
      "ible": 1547,
      "▁dec": 1548,
      "▁–": 1549,
      "a,": 1550,
      "ten": 1551,
      "▁add": 1552,
      "▁form": 1553,
      "ange": 1554,
      "ert": 1555,
      "▁att": 1556,
      "ise": 1557,
      "▁sur": 1558,
      "ower": 1559,
      "▁should": 1560,
      "arch": 1561,
      "▁well": 1562,
      "▁He": 1563,
      "fore": 1564,
      "ution": 1565,
      "ween": 1566,
      "ble": 1567,
      "▁-": 1568,
      "▁water": 1569,
      "▁fl": 1570,
      "▁supp": 1571,
      "y.": 1572,
      "ng": 1573,
      "▁rem": 1574,
      "ract": 1575,
      "ick": 1576,
      "aw": 1577,
      "own": 1578,
      "gan": 1579,
      "▁inv": 1580,
      "▁sub": 1581,
      "▁health": 1582,
      "▁co": 1583,
      "xt": 1584,
      "ed,": 1585,
      "▁4": 1586,
      "▁between": 1587,
      "▁sm": 1588,
      "ism": 1589,
      "sel": 1590,
      "▁pres": 1591,
      "▁high": 1592,
      "▁could": 1593,
      "ever": 1594,
      "▁where": 1595,
      "▁bu": 1596,
      "▁200": 1597,
      "uc": 1598,
      "▁trans": 1599,
      "▁make": 1600,
      "ade": 1601,
      "wn": 1602,
      "ident": 1603,
      "▁rese": 1604,
      "▁5": 1605,
      "▁get": 1606,
      "▁As": 1607,
      "uch": 1608,
      "ures": 1609,
      "▁pers": 1610,
      "form": 1611,
      "chool": 1612,
      "▁import": 1613,
      "ation,": 1614,
      "ife": 1615,
      "chn": 1616,
      "ural": 1617,
      "ience": 1618,
      "▁her": 1619,
      "enc": 1620,
      "▁ear": 1621,
      "ict": 1622,
      "▁mod": 1623,
      "ft": 1624,
      "▁inter": 1625,
      "ly,": 1626,
      "ork": 1627,
      "▁pol": 1628,
      "▁num": 1629,
      "▁inst": 1630,
      "meric": 1631,
      "ont": 1632,
      "▁exam": 1633,
      "ics": 1634,
      "’t": 1635,
      "▁disc": 1636,
      "ited": 1637,
      "land": 1638,
      "▁way": 1639,
      "▁different": 1640,
      "er,": 1641,
      "▁effect": 1642,
      "▁lear": 1643,
      "hat": 1644,
      "▁found": 1645,
      "ivers": 1646,
      "▁because": 1647,
      "ature": 1648,
      "▁sim": 1649,
      "ef": 1650,
      "▁car": 1651,
      "▁after": 1652,
      "▁exper": 1653,
      "▁long": 1654,
      "ting": 1655,
      "als": 1656,
      "▁world": 1657,
      "▁lar": 1658,
      "▁med": 1659,
      "?\n": 1660,
      "▁even": 1661,
      "▁cent": 1662,
      "▁very": 1663,
      "▁incre": 1664,
      "▁then": 1665,
      "cept": 1666,
      "▁just": 1667,
      ".\nW": 1668,
      "▁count": 1669,
      "▁ed": 1670,
      "ily": 1671,
      "▁det": 1672,
      "arm": 1673,
      "▁typ": 1674,
      "erg": 1675,
      "hes": 1676,
      "urn": 1677,
      "▁resp": 1678,
      "▁hum": 1679,
      "anc": 1680,
      "oy": 1681,
      "▁inform": 1682,
      "vent": 1683,
      "▁sign": 1684,
      ".\nT": 1685,
      "ually": 1686,
      "other": 1687,
      "get": 1688,
      "▁18": 1689,
      "▁var": 1690,
      "▁Americ": 1691,
      "ata": 1692,
      "▁ke": 1693,
      ".\nS": 1694,
      "its": 1695,
      "▁gener": 1696,
      "ock": 1697,
      "iew": 1698,
      "▁ref": 1699,
      "▁those": 1700,
      "ollow": 1701,
      "▁pat": 1702,
      "aking": 1703,
      "▁see": 1704,
      "▁ext": 1705,
      "ed.": 1706,
      "▁result": 1707,
      "▁prog": 1708,
      "▁every": 1709,
      "▁pub": 1710,
      "▁said": 1711,
      "ines": 1712,
      "▁fact": 1713,
      "ros": 1714,
      "▁call": 1715,
      "▁children": 1716,
      "▁being": 1717,
      "omm": 1718,
      "▁each": 1719,
      "▁soc": 1720,
      "▁ca": 1721,
      "▁sec": 1722,
      "ants": 1723,
      "▁art": 1724,
      "iron": 1725,
      "ness": 1726,
      "▁requ": 1727,
      "▁important": 1728,
      "▁partic": 1729,
      "▁techn": 1730,
      "roup": 1731,
      "ing.": 1732,
      "tle": 1733,
      "ruct": 1734,
      "▁gra": 1735,
      "io": 1736,
      "▁dist": 1737,
      "▁Al": 1738,
      "▁commun": 1739,
      "▁set": 1740,
      "▁We": 1741,
      "\nThe": 1742,
      "▁mon": 1743,
      "blem": 1744,
      "ists": 1745,
      "ection": 1746,
      "▁years": 1747,
      "▁much": 1748,
      "ts": 1749,
      "▁process": 1750,
      "▁she": 1751,
      "e.": 1752,
      "led": 1753,
      "cent": 1754,
      "▁def": 1755,
      "▁during": 1756,
      "▁dep": 1757,
      "ins": 1758,
      "▁cre": 1759,
      "▁ent": 1760,
      "ather": 1761,
      "▁end": 1762,
      "▁fam": 1763,
      "▁loc": 1764,
      "ically": 1765,
      "vern": 1766,
      "ward": 1767,
      "▁lead": 1768,
      "▁own": 1769,
      "▁read": 1770,
      "▁follow": 1771,
      "▁food": 1772,
      "▁level": 1773,
      "▁sk": 1774,
      "gg": 1775,
      "▁my": 1776,
      "▁Pro": 1777,
      "▁They": 1778,
      "▁aut": 1779,
      "ology": 1780,
      "▁bod": 1781,
      "▁right": 1782,
      "▁person": 1783,
      "▁6": 1784,
      "ever,": 1785,
      "▁grow": 1786,
      "▁Re": 1787,
      "▁day": 1788,
      "▁problem": 1789,
      "▁find": 1790,
      "▁same": 1791,
      "hip": 1792,
      "▁does": 1793,
      "dition": 1794,
      "▁min": 1795,
      "▁back": 1796,
      "▁writ": 1797,
      "ved": 1798,
      "ation.": 1799,
      "▁good": 1800,
      "▁cur": 1801,
      "▁If": 1802,
      "▁school": 1803,
      "▁made": 1804,
      "▁av": 1805,
      "▁An": 1806,
      "▁str": 1807,
      "▁both": 1808,
      "▁ins": 1809,
      "onom": 1810,
      "ized": 1811,
      "cer": 1812,
      "the": 1813,
      "ality": 1814,
      "▁che": 1815,
      "▁life": 1816,
      "▁For": 1817,
      "▁How": 1818,
      "viron": 1819,
      "▁using": 1820,
      "▁hist": 1821,
      "und": 1822,
      "▁show": 1823,
      "ives": 1824,
      "▁Ar": 1825,
      "▁pop": 1826,
      "19": 1827,
      "▁expl": 1828,
      "▁comple": 1829,
      "20": 1830,
      "▁before": 1831,
      "read": 1832,
      "▁group": 1833,
      "▁gl": 1834,
      "▁cor": 1835,
      "▁test": 1836,
      "▁small": 1837,
      "stand": 1838,
      "ivid": 1839,
      "▁data": 1840,
      "ank": 1841,
      "▁main": 1842,
      "iel": 1843,
      "inal": 1844,
      "▁students": 1845,
      "iversity": 1846,
      "▁treat": 1847,
      "||": 1848,
      "up": 1849,
      "▁look": 1850,
      "ues": 1851,
      "▁often": 1852,
      "ince": 1853,
      "▁again": 1854,
      "▁val": 1855,
      "▁sol": 1856,
      "ize": 1857,
      "ential": 1858,
      "▁br": 1859,
      "omen": 1860,
      "▁prot": 1861,
      "▁number": 1862,
      "ix": 1863,
      "▁Ind": 1864,
      "▁less": 1865,
      "rol": 1866,
      "ted": 1867,
      "nce": 1868,
      "▁while": 1869,
      "▁human": 1870,
      "000": 1871,
      "imate": 1872,
      ".\nIn": 1873,
      "▁poss": 1874,
      "▁dise": 1875,
      "▁take": 1876,
      "▁state": 1877,
      "vironment": 1878,
      "ished": 1879,
      "▁lit": 1880,
      "▁organ": 1881,
      "▁research": 1882,
      "▁ris": 1883,
      "vers": 1884,
      ".,": 1885,
      "ax": 1886,
      "ages": 1887,
      "▁information": 1888,
      "ral": 1889,
      "▁occ": 1890,
      "▁ec": 1891,
      "▁power": 1892,
      "▁study": 1893,
      "▁serv": 1894,
      "▁now": 1895,
      "▁Sp": 1896,
      "any": 1897,
      "▁New": 1898,
      "\nA": 1899,
      "on,": 1900,
      "oh": 1901,
      "der": 1902,
      "ex": 1903,
      "▁fun": 1904,
      "▁10": 1905,
      "▁mem": 1906,
      "rain": 1907,
      "▁Sc": 1908,
      "▁cell": 1909,
      "▁vis": 1910,
      "▁program": 1911,
      "▁him": 1912,
      "▁activ": 1913,
      "▁provid": 1914,
      "▁di": 1915,
      "ies,": 1916,
      "iqu": 1917,
      "▁design": 1918,
      "▁char": 1919,
      "▁hand": 1920,
      "▁around": 1921,
      "ital": 1922,
      "air": 1923,
      "▁redu": 1924,
      "▁support": 1925,
      "▁down": 1926,
      "cl": 1927,
      "ale": 1928,
      "ases": 1929,
      "▁bel": 1930,
      "irect": 1931,
      "ered": 1932,
      "ield": 1933,
      "▁three": 1934,
      "akes": 1935,
      "▁must": 1936,
      "▁conf": 1937,
      "▁start": 1938,
      "ion,": 1939,
      "ven": 1940,
      "▁7": 1941,
      "ah": 1942,
      "ium": 1943,
      ".”": 1944,
      "ier": 1945,
      "▁common": 1946,
      "▁est": 1947,
      "-b": 1948,
      "aj": 1949,
      "▁plan": 1950,
      "▁cle": 1951,
      "▁point": 1952,
      "day": 1953,
      "rent": 1954,
      "uss": 1955,
      "ave": 1956,
      "ute": 1957,
      "▁great": 1958,
      "ices": 1959,
      "way": 1960,
      "ined": 1961,
      "▁govern": 1962,
      "▁word": 1963,
      "▁elect": 1964,
      "acter": 1965,
      "ional": 1966,
      "eg": 1967,
      "▁But": 1968,
      "iving": 1969,
      "▁large": 1970,
      "▁ser": 1971,
      "▁did": 1972,
      ":\n": 1973,
      "▁example": 1974,
      "▁report": 1975,
      "ergy": 1976,
      "orn": 1977,
      "▁care": 1978,
      "▁land": 1979,
      "his": 1980,
      "tt": 1981,
      "self": 1982,
      "▁You": 1983,
      "▁class": 1984,
      "ving": 1985,
      "▁8": 1986,
      "ouse": 1987,
      "▁contin": 1988,
      "▁op": 1989,
      "ull": 1990,
      "-s": 1991,
      "ulation": 1992,
      "▁There": 1993,
      ".\nC": 1994,
      "a.": 1995,
      "ared": 1996,
      "▁allow": 1997,
      "ron": 1998,
      "ross": 1999,
      "ars": 2000,
      "▁equ": 2001,
      "▁including": 2002,
      "▁adv": 2003,
      "▁const": 2004,
      "▁understand": 2005,
      "o,": 2006,
      "▁met": 2007,
      "com": 2008,
      "eng": 2009,
      "▁risk": 2010,
      "▁educ": 2011,
      "▁build": 2012,
      "ash": 2013,
      "▁‘": 2014,
      "▁though": 2015,
      "▁ret": 2016,
      "▁Is": 2017,
      "▁cour": 2018,
      "▁dr": 2019,
      "▁think": 2020,
      "aterial": 2021,
      "ividual": 2022,
      "outh": 2023,
      "10": 2024,
      "ek": 2025,
      ".\nB": 2026,
      "iven": 2027,
      "▁pract": 2028,
      "▁known": 2029,
      "esp": 2030,
      "▁beh": 2031,
      "▁som": 2032,
      "inc": 2033,
      "▁still": 2034,
      "▁called": 2035,
      "▁public": 2036,
      "ired": 2037,
      "▁And": 2038,
      "▁eas": 2039,
      "▁9": 2040,
      "▁learn": 2041,
      "iod": 2042,
      "▁quest": 2043,
      "hers": 2044,
      "alk": 2045,
      ".\nF": 2046,
      "▁environment": 2047,
      "▁gu": 2048,
      "▁place": 2049,
      "reen": 2050,
      "oci": 2051,
      ".\nH": 2052,
      "ially": 2053,
      "▁ide": 2054,
      "▁Wh": 2055,
      "▁appro": 2056,
      "▁might": 2057,
      "itive": 2058,
      "▁mat": 2059,
      "erest": 2060,
      "lish": 2061,
      "▁few": 2062,
      "▁These": 2063,
      "ains": 2064,
      "▁bo": 2065,
      "ior": 2066,
      "▁book": 2067,
      "▁caus": 2068,
      "▁present": 2069,
      "▁tem": 2070,
      "ird": 2071,
      "raph": 2072,
      "▁chang": 2073,
      "▁stand": 2074,
      ",000": 2075,
      "ves": 2076,
      "▁within": 2077,
      "▁dem": 2078,
      "▁individual": 2079,
      "▁body": 2080,
      "▁change": 2081,
      "ger": 2082,
      "▁pur": 2083,
      "▁want": 2084,
      "ffic": 2085,
      "str": 2086,
      "ording": 2087,
      "▁development": 2088,
      "▁product": 2089,
      "▁sit": 2090,
      "oun": 2091,
      "▁say": 2092,
      "ty": 2093,
      "▁mark": 2094,
      "ption": 2095,
      "▁Eng": 2096,
      "▁without": 2097,
      "agn": 2098,
      "▁don": 2099,
      "ense": 2100,
      "ency": 2101,
      "▁term": 2102,
      "▁sym": 2103,
      "▁American": 2104,
      "▁phys": 2105,
      "▁play": 2106,
      "▁iss": 2107,
      "▁material": 2108,
      "osed": 2109,
      "angu": 2110,
      "ethod": 2111,
      "iety": 2112,
      "ertain": 2113,
      "amp": 2114,
      "▁imm": 2115,
      "▁light": 2116,
      "eral": 2117,
      "▁impro": 2118,
      "line": 2119,
      "▁cap": 2120,
      "▁Se": 2121,
      "▁prof": 2122,
      "▁project": 2123,
      "▁pot": 2124,
      "▁air": 2125,
      "man": 2126,
      "▁ident": 2127,
      "▁De": 2128,
      "▁spe": 2129,
      "ator": 2130,
      "▁199": 2131,
      "▁University": 2132,
      "-c": 2133,
      "ason": 2134,
      "\nI": 2135,
      "▁ben": 2136,
      ".\nM": 2137,
      "▁pos": 2138,
      "ider": 2139,
      "arent": 2140,
      "erc": 2141,
      "▁sl": 2142,
      "▁ve": 2143,
      "▁bre": 2144,
      "▁social": 2145,
      "▁eng": 2146,
      "ner": 2147,
      "ected": 2148,
      "atic": 2149,
      "ability": 2150,
      "▁bas": 2151,
      "oid": 2152,
      "ug": 2153,
      "ental": 2154,
      "▁anal": 2155,
      "ters": 2156,
      "▁plant": 2157,
      "▁ant": 2158,
      "▁another": 2159,
      "▁meas": 2160,
      "▁women": 2161,
      "ological": 2162,
      "▁&": 2163,
      "▁direct": 2164,
      "orth": 2165,
      "▁best": 2166,
      "ajor": 2167,
      "ived": 2168,
      "rodu": 2169,
      "▁home": 2170,
      "▁mill": 2171,
      "de": 2172,
      "▁pass": 2173,
      "ris": 2174,
      "me": 2175,
      "ified": 2176,
      "▁belie": 2177,
      "▁blood": 2178,
      "▁et": 2179,
      "bers": 2180,
      "▁pain": 2181,
      "▁mus": 2182,
      "▁law": 2183,
      "▁cult": 2184,
      "▁include": 2185,
      "▁Con": 2186,
      "atural": 2187,
      "▁interest": 2188,
      "hor": 2189,
      "▁Ad": 2190,
      "▁desc": 2191,
      "'t": 2192,
      "▁government": 2193,
      "▁control": 2194,
      "ization": 2195,
      "▁opp": 2196,
      "▁rest": 2197,
      "n’t": 2198,
      "▁sour": 2199,
      "▁become": 2200,
      "ern": 2201,
      "ia,": 2202,
      "▁low": 2203,
      "gin": 2204,
      "▁tre": 2205,
      "ify": 2206,
      "work": 2207,
      "▁econom": 2208,
      "▁sever": 2209,
      "ik": 2210,
      "lu": 2211,
      ".\nO": 2212,
      "▁proper": 2213,
      "az": 2214,
      "-f": 2215,
      "▁war": 2216,
      "arc": 2217,
      "▁old": 2218,
      "▁better": 2219,
      "▁anim": 2220,
      "▁method": 2221,
      "▁energy": 2222,
      ".\nP": 2223,
      "▁ess": 2224,
      "ination": 2225,
      "▁move": 2226,
      "▁Ph": 2227,
      "here": 2228,
      "ccess": 2229,
      "rap": 2230,
      "▁leg": 2231,
      "lished": 2232,
      "▁early": 2233,
      "-t": 2234,
      "▁ele": 2235,
      "▁against": 2236,
      "ision": 2237,
      "▁Sh": 2238,
      "▁mil": 2239,
      "▁top": 2240,
      "ers,": 2241,
      "iness": 2242,
      "▁second": 2243,
      "rist": 2244,
      "▁keep": 2245,
      "ury": 2246,
      "▁last": 2247,
      "els": 2248,
      "▁here": 2249,
      "▁fore": 2250,
      "▁real": 2251,
      "▁history": 2252,
      "ware": 2253,
      "▁mean": 2254,
      "▁oper": 2255,
      "▁cause": 2256,
      "ission": 2257,
      "▁major": 2258,
      "▁occur": 2259,
      "▁provide": 2260,
      "▁avail": 2261,
      "itions": 2262,
      "▁When": 2263,
      "oms": 2264,
      "ained": 2265,
      "view": 2266,
      "ead": 2267,
      "▁perform": 2268,
      "omp": 2269,
      "▁indu": 2270,
      "▁particular": 2271,
      "bs": 2272,
      ")\n": 2273,
      "▁Cl": 2274,
      "▁dev": 2275,
      "ration": 2276,
      "less": 2277,
      "icle": 2278,
      "▁order": 2279,
      "▁Ex": 2280,
      "▁par": 2281,
      "▁current": 2282,
      "▁possible": 2283,
      "▁However,": 2284,
      "▁period": 2285,
      "▁—": 2286,
      "▁addition": 2287,
      "use": 2288,
      "ering": 2289,
      "▁langu": 2290,
      "▁fin": 2291,
      "▁United": 2292,
      "▁invol": 2293,
      "▁saf": 2294,
      "▁Res": 2295,
      "▁several": 2296,
      "pect": 2297,
      "▁unt": 2298,
      "ograph": 2299,
      "▁hig": 2300,
      "▁[": 2301,
      "▁15": 2302,
      "ies.": 2303,
      "rim": 2304,
      "▁near": 2305,
      "▁lim": 2306,
      "▁able": 2307,
      "ways": 2308,
      "▁means": 2309,
      "▁percent": 2310,
      "1.": 2311,
      "▁orig": 2312,
      "▁benef": 2313,
      ".\nD": 2314,
      "▁signific": 2315,
      "ention": 2316,
      "▁treatment": 2317,
      "sy": 2318,
      "▁disease": 2319,
      "S.": 2320,
      "ret": 2321,
      "▁happ": 2322,
      "▁men": 2323,
      "▁cal": 2324,
      "▁prom": 2325,
      "ity,": 2326,
      "▁affect": 2327,
      "ogn": 2328,
      "ining": 2329,
      "irc": 2330,
      "-p": 2331,
      "aper": 2332,
      "▁bus": 2333,
      "▁non": 2334,
      "▁Col": 2335,
      "▁cost": 2336,
      "idence": 2337,
      "▁open": 2338,
      "ateg": 2339,
      "urop": 2340,
      "▁feel": 2341,
      "▁since": 2342,
      "2.": 2343,
      "▁el": 2344,
      "▁too": 2345,
      "▁scient": 2346,
      "▁God": 2347,
      "...": 2348,
      "▁To": 2349,
      "▁among": 2350,
      "ilar": 2351,
      "▁areas": 2352,
      "0.": 2353,
      "ole": 2354,
      "▁fre": 2355,
      "osp": 2356,
      "though": 2357,
      "▁learning": 2358,
      "▁Pl": 2359,
      "▁country": 2360,
      "▁Z": 2361,
      "▁based": 2362,
      "▁Q": 2363,
      "-1": 2364,
      "port": 2365,
      "▁available": 2366,
      "▁prevent": 2367,
      "ids": 2368,
      "par": 2369,
      "▁head": 2370,
      "ets": 2371,
      "▁four": 2372,
      "ently": 2373,
      "▁del": 2374,
      "elf": 2375,
      "▁fac": 2376,
      "▁Comm": 2377,
      "ote": 2378,
      "ien": 2379,
      "▁following": 2380,
      "of": 2381,
      "urther": 2382,
      "ton": 2383,
      "▁area": 2384,
      "ploy": 2385,
      "▁age": 2386,
      "▁certain": 2387,
      "▁struct": 2388,
      "▁At": 2389,
      "ocus": 2390,
      "▁What": 2391,
      "▁list": 2392,
      "▁month": 2393,
      "▁week": 2394,
      "|\n": 2395,
      "gen": 2396,
      "olution": 2397,
      "ients": 2398,
      "-d": 2399,
      "▁hard": 2400,
      "ean": 2401,
      "ians": 2402,
      "▁access": 2403,
      "▁conn": 2404,
      "▁17": 2405,
      "▁object": 2406,
      "oint": 2407,
      "▁lab": 2408,
      "ers.": 2409,
      "▁view": 2410,
      "▁run": 2411,
      "▁natural": 2412,
      "ries": 2413,
      "▁post": 2414,
      "▁bi": 2415,
      "ended": 2416,
      "ples": 2417,
      "▁rece": 2418,
      "▁function": 2419,
      "ww": 2420,
      "▁put": 2421,
      "▁local": 2422,
      "▁creat": 2423,
      "▁intern": 2424,
      "br": 2425,
      "▁free": 2426,
      "▁U.": 2427,
      "er.": 2428,
      "▁bro": 2429,
      "ggest": 2430,
      "icult": 2431,
      "▁little": 2432,
      "▁impact": 2433,
      "▁amount": 2434,
      "▁En": 2435,
      "▁vol": 2436,
      "▁associ": 2437,
      "▁significant": 2438,
      "\nS": 2439,
      "▁resour": 2440,
      "▁press": 2441,
      "▁come": 2442,
      "resent": 2443,
      "▁gr": 2444,
      "▁flow": 2445,
      "▁mult": 2446,
      "over": 2447,
      "ortun": 2448,
      "ably": 2449,
      "▁Cent": 2450,
      "ling": 2451,
      "▁mar": 2452,
      "▁Te": 2453,
      "por": 2454,
      "▁obs": 2455,
      "▁field": 2456,
      "▁young": 2457,
      "▁let": 2458,
      "▁name": 2459,
      "etic": 2460,
      "▁due": 2461,
      "▁success": 2462,
      "▁Europ": 2463,
      "▁vir": 2464,
      "\nT": 2465,
      "not": 2466,
      "▁Af": 2467,
      "atory": 2468,
      "ask": 2469,
      "__": 2470,
      "▁family": 2471,
      "▁Be": 2472,
      "▁suggest": 2473,
      "▁until": 2474,
      "▁later": 2475,
      "ledge": 2476,
      "▁short": 2477,
      "ats": 2478,
      "uture": 2479,
      "ither": 2480,
      "hem": 2481,
      "yd": 2482,
      "▁turn": 2483,
      "▁National": 2484,
      "▁given": 2485,
      "▁sw": 2486,
      "▁making": 2487,
      "▁comput": 2488,
      "▁cho": 2489,
      "stit": 2490,
      "ured": 2491,
      "▁behav": 2492,
      "▁12": 2493,
      "▁type": 2494,
      "▁invest": 2495,
      "▁determ": 2496,
      "ised": 2497,
      "▁On": 2498,
      "▁focus": 2499,
      "▁Christ": 2500,
      "ends": 2501,
      "ym": 2502,
      "▁polit": 2503,
      "▁.": 2504,
      "aken": 2505,
      "une": 2506,
      "-m": 2507,
      "▁rad": 2508,
      "aster": 2509,
      "▁Or": 2510,
      "agement": 2511,
      ".\"": 2512,
      "▁things": 2513,
      "▁seem": 2514,
      "▁Fr": 2515,
      "▁heart": 2516,
      "▁Can": 2517,
      "▁potential": 2518,
      "▁along": 2519,
      "▁comb": 2520,
      "▁likely": 2521,
      "cle": 2522,
      "▁skill": 2523,
      "▁enc": 2524,
      "i,": 2525,
      "▁language": 2526,
      "▁author": 2527,
      "ication": 2528,
      "▁consider": 2529,
      "oph": 2530,
      "▁someth": 2531,
      "▁fil": 2532,
      "▁circ": 2533,
      "▁appear": 2534,
      "▁death": 2535,
      "▁example,": 2536,
      "▁species": 2537,
      "▁course": 2538,
      "▁teac": 2539,
      "▁All": 2540,
      "▁exist": 2541,
      ".\n“": 2542,
      "orld": 2543,
      "▁usually": 2544,
      "▁ask": 2545,
      "▁(1": 2546,
      "\nW": 2547,
      "ression": 2548,
      "face": 2549,
      "▁US": 2550,
      "ohn": 2551,
      "ards": 2552,
      "▁increase": 2553,
      "3.": 2554,
      "▁specific": 2555,
      "▁consum": 2556,
      "▁prim": 2557,
      "▁rele": 2558,
      "▁it’s": 2559,
      "▁temper": 2560,
      "▁sing": 2561,
      "pr": 2562,
      "▁difficult": 2563,
      "▁16": 2564,
      "▁past": 2565,
      "ox": 2566,
      "▁far": 2567,
      "ann": 2568,
      "▁clear": 2569,
      ":\n-": 2570,
      "▁create": 2571,
      "▁similar": 2572,
      "ruction": 2573,
      ".\nE": 2574,
      ".\nR": 2575,
      "ember": 2576,
      ",”": 2577,
      "ecially": 2578,
      "▁effective": 2579,
      "▁Le": 2580,
      "ories": 2581,
      "▁lot": 2582,
      "oad": 2583,
      "▁give": 2584,
      "▁experience": 2585,
      "▁brain": 2586,
      "ames": 2587,
      "istic": 2588,
      "▁always": 2589,
      "vious": 2590,
      "isc": 2591,
      "▁ey": 2592,
      "▁ill": 2593,
      "▁space": 2594,
      "r.": 2595,
      "▁character": 2596,
      "▁parent": 2597,
      "▁condition": 2598,
      "▁text": 2599,
      "▁today": 2600,
      "ending": 2601,
      "▁record": 2602,
      "let": 2603,
      "oot": 2604,
      "▁begin": 2605,
      "▁crit": 2606,
      "app": 2607,
      "▁$": 2608,
      "ane": 2609,
      "▁dra": 2610,
      "ument": 2611,
      "▁line": 2612,
      "idd": 2613,
      "▁describ": 2614,
      "▁profess": 2615,
      "ope": 2616,
      "▁future": 2617,
      "▁various": 2618,
      "▁student": 2619,
      "▁higher": 2620,
      "1,": 2621,
      "obal": 2622,
      "▁dam": 2623,
      "▁special": 2624,
      "etim": 2625,
      "ried": 2626,
      "rug": 2627,
      "▁stat": 2628,
      "ribut": 2629,
      "ged": 2630,
      "yl": 2631,
      "▁something": 2632,
      "ored": 2633,
      "▁discuss": 2634,
      "▁necess": 2635,
      "af": 2636,
      "▁prop": 2637,
      "especially": 2638,
      "▁applic": 2639,
      "mit": 2640,
      "▁sympt": 2641,
      "▁above": 2642,
      "▁next": 2643,
      "ysis": 2644,
      "▁million": 2645,
      "us,": 2646,
      "▁strong": 2647,
      "▁toget": 2648,
      "▁Afric": 2649,
      "▁together": 2650,
      "aining": 2651,
      "▁case": 2652,
      "asing": 2653,
      "▁U.S.": 2654,
      "▁least": 2655,
      "▁Brit": 2656,
      "▁try": 2657,
      "nal": 2658,
      "▁across": 2659,
      "▁side": 2660,
      "▁require": 2661,
      "ina": 2662,
      "▁Med": 2663,
      "▁mov": 2664,
      "▁er": 2665,
      "▁(2": 2666,
      "▁gre": 2667,
      "’re": 2668,
      "aps": 2669,
      "▁colle": 2670,
      "ilt": 2671,
      "▁improve": 2672,
      "▁Bl": 2673,
      "ilities": 2674,
      "▁why": 2675,
      "sw": 2676,
      "most": 2677,
      "▁respons": 2678,
      "▁kind": 2679,
      "▁times": 2680,
      "in,": 2681,
      "▁estab": 2682,
      "▁Ear": 2683,
      "▁researc": 2684,
      "atch": 2685,
      "iate": 2686,
      "▁famil": 2687,
      "50": 2688,
      "▁community": 2689,
      "▁says": 2690,
      "itor": 2691,
      "▁mot": 2692,
      "▁never": 2693,
      "ances": 2694,
      "▁left": 2695,
      "▁levels": 2696,
      "▁away": 2697,
      "min": 2698,
      "lement": 2699,
      "▁tool": 2700,
      "ring": 2701,
      "-l": 2702,
      ".\nThis": 2703,
      "▁event": 2704,
      "sc": 2705,
      "▁sens": 2706,
      "amm": 2707,
      "sp": 2708,
      "▁enough": 2709,
      "▁model": 2710,
      "ps": 2711,
      "▁net": 2712,
      "▁'": 2713,
      "▁question": 2714,
      "|\n|": 2715,
      "4.": 2716,
      "▁complete": 2717,
      "▁working": 2718,
      "▁general": 2719,
      "▁chem": 2720,
      "▁cond": 2721,
      "▁plac": 2722,
      "▁tru": 2723,
      "▁especially": 2724,
      "▁team": 2725,
      "an,": 2726,
      "▁full": 2727,
      "▁influ": 2728,
      "acc": 2729,
      "NA": 2730,
      "▁subject": 2731,
      "alf": 2732,
      "ott": 2733,
      "▁sal": 2734,
      "▁link": 2735,
      "ance,": 2736,
      "▁War": 2737,
      "ray": 2738,
      "▁having": 2739,
      "cing": 2740,
      "▁business": 2741,
      "ush": 2742,
      "▁key": 2743,
      "▁sum": 2744,
      "duct": 2745,
      "▁role": 2746,
      "▁paper": 2747,
      "side": 2748,
      "▁Germ": 2749,
      "▁results": 2750,
      "▁protect": 2751,
      "▁physical": 2752,
      "▁lower": 2753,
      "▁norm": 2754,
      "▁lif": 2755,
      "▁hour": 2756,
      "▁step": 2757,
      "▁account": 2758,
      "▁whether": 2759,
      "chie": 2760,
      "yn": 2761,
      "▁mic": 2762,
      "▁knowledge": 2763,
      "ipp": 2764,
      "▁polic": 2765,
      "▁cancer": 2766,
      "▁offic": 2767,
      "aim": 2768,
      ".\nL": 2769,
      "▁z": 2770,
      "▁works": 2771,
      "▁John": 2772,
      "▁others": 2773,
      "ung": 2774,
      "▁population": 2775,
      "▁represent": 2776,
      "▁self": 2777,
      ".\nN": 2778,
      "▁became": 2779,
      "▁Some": 2780,
      "▁reason": 2781,
      "ones": 2782,
      "▁mind": 2783,
      "▁going": 2784,
      "▁further": 2785,
      "▁production": 2786,
      "sych": 2787,
      "▁pred": 2788,
      "\nC": 2789,
      "▁relations": 2790,
      "apt": 2791,
      "▁house": 2792,
      "▁With": 2793,
      "▁makes": 2794,
      "▁concer": 2795,
      "▁198": 2796,
      "ides": 2797,
      "▁ground": 2798,
      "▁don’t": 2799,
      "oman": 2800,
      "▁live": 2801,
      "▁big": 2802,
      "▁English": 2803,
      "▁science": 2804,
      "▁cells": 2805,
      "iation": 2806,
      "▁chall": 2807,
      "▁(19": 2808,
      "▁ens": 2809,
      "▁World": 2810,
      "amin": 2811,
      "▁changes": 2812,
      "aring": 2813,
      "//": 2814,
      "▁range": 2815,
      "ique": 2816,
      "▁problems": 2817,
      "▁needs": 2818,
      "▁prob": 2819,
      "ure,": 2820,
      "▁fund": 2821,
      "ly.": 2822,
      "ler": 2823,
      "▁dig": 2824,
      "▁toward": 2825,
      "▁Gen": 2826,
      "ready": 2827,
      "cul": 2828,
      "▁One": 2829,
      "▁opt": 2830,
      "▁sure": 2831,
      "ape": 2832,
      "▁growth": 2833,
      "▁indic": 2834,
      "iol": 2835,
      "aut": 2836,
      "▁nut": 2837,
      "ires": 2838,
      "verage": 2839,
      "▁types": 2840,
      "▁States": 2841,
      "ibility": 2842,
      "for": 2843,
      "5.": 2844,
      "to": 2845,
      "▁employ": 2846,
      "▁seen": 2847,
      "iple": 2848,
      "▁cy": 2849,
      "aching": 2850,
      "2,": 2851,
      "▁quality": 2852,
      "urch": 2853,
      "▁eff": 2854,
      "rel": 2855,
      "ream": 2856,
      "bon": 2857,
      "▁activities": 2858,
      "ion.": 2859,
      "▁tradition": 2860,
      "ee": 2861,
      "▁below": 2862,
      "▁Health": 2863,
      "▁fall": 2864,
      "mber": 2865,
      "is,": 2866,
      "▁Mar": 2867,
      "▁Go": 2868,
      "▁30": 2869,
      "▁story": 2870,
      "▁really": 2871,
      "erence": 2872,
      "▁That": 2873,
      "▁wind": 2874,
      "▁close": 2875,
      "augh": 2876,
      "i.": 2877,
      "ival": 2878,
      "▁particip": 2879,
      "▁effects": 2880,
      "oura": 2881,
      "val": 2882,
      "://": 2883,
      "▁already": 2884,
      "▁technology": 2885,
      "iting": 2886,
      "▁rather": 2887,
      "enn": 2888,
      "ity.": 2889,
      "rict": 2890,
      "or,": 2891,
      "▁diet": 2892,
      "▁Car": 2893,
      "▁recogn": 2894,
      "▁achie": 2895,
      "▁situ": 2896,
      "▁arm": 2897,
      "orts": 2898,
      "omes": 2899,
      "▁bat": 2900,
      "▁either": 2901,
      "▁according": 2902,
      "▁neg": 2903,
      "thing": 2904,
      "▁By": 2905,
      "▁market": 2906,
      "▁Intern": 2907,
      "3,": 2908,
      "ued": 2909,
      "overed": 2910,
      "▁education": 2911,
      "▁patients": 2912,
      "30": 2913,
      "unt": 2914,
      "ode": 2915,
      "▁deg": 2916,
      "iam": 2917,
      "▁single": 2918,
      "esc": 2919,
      "▁oil": 2920,
      "put": 2921,
      "▁abs": 2922,
      "ment,": 2923,
      "▁fr": 2924,
      "▁reduce": 2925,
      "eb": 2926,
      "idered": 2927,
      "fact": 2928,
      "▁Im": 2929,
      "▁black": 2930,
      "▁days": 2931,
      "▁climate": 2932,
      "▁ur": 2933,
      "▁source": 2934,
      "▁Ab": 2935,
      "▁phot": 2936,
      "▁rate": 2937,
      "▁flu": 2938,
      "▁national": 2939,
      "▁red": 2940,
      "4,": 2941,
      "▁surface": 2942,
      "▁observ": 2943,
      "▁value": 2944,
      "ators": 2945,
      "▁Am": 2946,
      "▁soil": 2947,
      "▁drug": 2948,
      "▁So": 2949,
      "▁time,": 2950,
      "leep": 2951,
      "▁concept": 2952,
      "▁medical": 2953,
      "▁five": 2954,
      "▁article": 2955,
      "irm": 2956,
      "▁init": 2957,
      "ime": 2958,
      "earch": 2959,
      "▁introdu": 2960,
      "▁systems": 2961,
      "▁once": 2962,
      "▁South": 2963,
      "▁taken": 2964,
      "▁=": 2965,
      "▁building": 2966,
      "atures": 2967,
      "▁Ge": 2968,
      "▁Pres": 2969,
      "▁Tr": 2970,
      "▁whole": 2971,
      "▁ways": 2972,
      "ivil": 2973,
      "▁cut": 2974,
      "▁She": 2975,
      "▁tot": 2976,
      "▁evidence": 2977,
      "▁dom": 2978,
      "▁recomm": 2979,
      "▁thought": 2980,
      "▁it.": 2981,
      "ER": 2982,
      "ule": 2983,
      "▁Cal": 2984,
      "o.": 2985,
      "▁North": 2986,
      "▁fail": 2987,
      "▁considered": 2988,
      "fficient": 2989,
      "▁studies": 2990,
      "▁attack": 2991,
      "▁ann": 2992,
      "▁frequ": 2993,
      "ublic": 2994,
      "▁done": 2995,
      "▁meet": 2996,
      "ournal": 2997,
      "▁associated": 2998,
      "oney": 2999,
      "ification": 3000,
      "11": 3001,
      "rect": 3002,
      "▁sun": 3003,
      "▁sent": 3004,
      "▁mass": 3005,
      "▁detail": 3006,
      "▁collect": 3007,
      "roll": 3008,
      "org": 3009,
      "▁developed": 3010,
      "▁created": 3011,
      "▁ver": 3012,
      "▁doct": 3013,
      "5,": 3014,
      "▁fri": 3015,
      "▁nature": 3016,
      "▁wide": 3017,
      "▁upon": 3018,
      "▁histor": 3019,
      "▁increased": 3020,
      "▁relig": 3021,
      "acy": 3022,
      "▁May": 3023,
      "▁political": 3024,
      "▁tell": 3025,
      "▁Ag": 3026,
      "epend": 3027,
      "▁themsel": 3028,
      "▁economic": 3029,
      "reg": 3030,
      "aves": 3031,
      "▁pay": 3032,
      "▁however,": 3033,
      "▁repl": 3034,
      "▁hold": 3035,
      "▁farm": 3036,
      "▁fat": 3037,
      "etimes": 3038,
      "▁Stud": 3039,
      "eter": 3040,
      "ots": 3041,
      "▁cannot": 3042,
      "reme": 3043,
      "ensive": 3044,
      "▁sound": 3045,
      "▁return": 3046,
      "▁dest": 3047,
      "ober": 3048,
      "▁came": 3049,
      "▁opportun": 3050,
      "▁Comp": 3051,
      "▁lay": 3052,
      "▁network": 3053,
      "▁required": 3054,
      "▁Ne": 3055,
      "▁related": 3056,
      "ibr": 3057,
      "▁simple": 3058,
      "sequ": 3059,
      "ison": 3060,
      "▁weight": 3061,
      "oll": 3062,
      "by": 3063,
      "ae": 3064,
      "▁plants": 3065,
      "ump": 3066,
      "▁concern": 3067,
      "▁actually": 3068,
      "fer": 3069,
      "▁relationship": 3070,
      "▁cat": 3071,
      "uel": 3072,
      "▁adult": 3073,
      "▁address": 3074,
      "▁animal": 3075,
      "▁Ass": 3076,
      "▁engine": 3077,
      "ia.": 3078,
      "ally,": 3079,
      "itud": 3080,
      "▁researchers": 3081,
      "▁conditions": 3082,
      "▁port": 3083,
      "▁entire": 3084,
      "rad": 3085,
      "▁sam": 3086,
      "▁purp": 3087,
      "▁ability": 3088,
      "▁global": 3089,
      "▁analysis": 3090,
      "▁quick": 3091,
      "ands": 3092,
      "▁maint": 3093,
      "▁Aust": 3094,
      "▁published": 3095,
      "▁complex": 3096,
      "olic": 3097,
      "▁avoid": 3098,
      "6.": 3099,
      "▁action": 3100,
      "▁arg": 3101,
      "▁modern": 3102,
      "▁city": 3103,
      "▁prote": 3104,
      "be": 3105,
      "▁countries": 3106,
      "▁197": 3107,
      "\nP": 3108,
      "▁white": 3109,
      "en,": 3110,
      "▁Rep": 3111,
      "▁York": 3112,
      "rown": 3113,
      "▁gas": 3114,
      ".\nIt": 3115,
      "▁answ": 3116,
      "▁members": 3117,
      "▁symptoms": 3118,
      "▁Man": 3119,
      "abit": 3120,
      "▁words": 3121,
      "▁Soc": 3122,
      "▁almost": 3123,
      "▁strateg": 3124,
      "▁fish": 3125,
      "-2": 3126,
      "▁site": 3127,
      "▁(C": 3128,
      "▁coll": 3129,
      "▁doc": 3130,
      "stry": 3131,
      "hib": 3132,
      "▁comes": 3133,
      "▁talk": 3134,
      "▁exerc": 3135,
      "▁itself": 3136,
      "al,": 3137,
      "sh": 3138,
      "▁thing": 3139,
      "chan": 3140,
      "▁dog": 3141,
      "t,": 3142,
      "▁management": 3143,
      "▁kill": 3144,
      "▁loss": 3145,
      "ystem": 3146,
      "▁vers": 3147,
      "▁measure": 3148,
      "▁living": 3149,
      "▁recent": 3150,
      "▁provides": 3151,
      "osis": 3152,
      "light": 3153,
      "▁14": 3154,
      "\nIn": 3155,
      "itary": 3156,
      "\nM": 3157,
      "▁react": 3158,
      "▁essential": 3159,
      "vere": 3160,
      "▁approach": 3161,
      "artment": 3162,
      "▁bar": 3163,
      "gest": 3164,
      "▁ter": 3165,
      "▁Act": 3166,
      "▁(S": 3167,
      "▁assess": 3168,
      "▁understanding": 3169,
      "erve": 3170,
      "▁necessary": 3171,
      "iment": 3172,
      "▁green": 3173,
      "▁path": 3174,
      "▁htt": 3175,
      "oon": 3176,
      "▁arch": 3177,
      "▁half": 3178,
      "▁bill": 3179,
      "▁suff": 3180,
      "▁Earth": 3181,
      "emic": 3182,
      "▁super": 3183,
      "▁(A": 3184,
      "▁produce": 3185,
      "▁happen": 3186,
      "▁liter": 3187,
      "▁skin": 3188,
      "▁Gu": 3189,
      "▁standard": 3190,
      "12": 3191,
      "ley": 3192,
      "inter": 3193,
      "▁X": 3194,
      "▁cas": 3195,
      "▁began": 3196,
      "▁feed": 3197,
      "▁compan": 3198,
      "▁Dep": 3199,
      "▁took": 3200,
      "▁patient": 3201,
      "▁priv": 3202,
      "▁100": 3203,
      "▁temperature": 3204,
      "▁medic": 3205,
      "▁pressure": 3206,
      "▁behavior": 3207,
      "6,": 3208,
      "▁arr": 3209,
      "▁soft": 3210,
      "▁State": 3211,
      "onse": 3212,
      "ables": 3213,
      "▁ever": 3214,
      "▁job": 3215,
      "▁His": 3216,
      "▁conduct": 3217,
      "▁Hist": 3218,
      "▁check": 3219,
      "cient": 3220,
      "▁tar": 3221,
      "▁emer": 3222,
      "8,": 3223,
      "▁princ": 3224,
      "▁fire": 3225,
      "son": 3226,
      "nes": 3227,
      ".\nWhat": 3228,
      "▁Do": 3229,
      "7.": 3230,
      "▁ge": 3231,
      ".\n\"": 3232,
      "\nB": 3233,
      "▁position": 3234,
      "▁Cont": 3235,
      "abor": 3236,
      "▁pattern": 3237,
      "▁matter": 3238,
      "igure": 3239,
      "▁chemical": 3240,
      "▁mor": 3241,
      "iddle": 3242,
      "lying": 3243,
      "▁popular": 3244,
      "▁separ": 3245,
      "▁throughout": 3246,
      "▁content": 3247,
      "▁practice": 3248,
      "▁stop": 3249,
      "-w": 3250,
      "8.": 3251,
      "mb": 3252,
      "▁personal": 3253,
      "▁cop": 3254,
      "▁yet": 3255,
      "ites": 3256,
      "SA": 3257,
      "n't": 3258,
      "▁activity": 3259,
      "ges": 3260,
      "7,": 3261,
      "ine,": 3262,
      "▁regard": 3263,
      "ply": 3264,
      "▁online": 3265,
      "ccording": 3266,
      "urity": 3267,
      "cy": 3268,
      "-based": 3269,
      "pid": 3270,
      "empt": 3271,
      "astic": 3272,
      "▁color": 3273,
      "ronic": 3274,
      "▁claim": 3275,
      "▁therap": 3276,
      "ID": 3277,
      "aging": 3278,
      "ations,": 3279,
      "▁bur": 3280,
      "▁British": 3281,
      "▁healthy": 3282,
      "ript": 3283,
      "▁taking": 3284,
      "hold": 3285,
      "▁11": 3286,
      "▁camp": 3287,
      "o-": 3288,
      "izing": 3289,
      "▁sense": 3290,
      "▁Jew": 3291,
      "▁rul": 3292,
      "▁196": 3293,
      "▁ut": 3294,
      "yle": 3295,
      "estern": 3296,
      "▁centur": 3297,
      "▁After": 3298,
      "▁groups": 3299,
      "▁idea": 3300,
      "aged": 3301,
      "anced": 3302,
      "i-": 3303,
      "▁interact": 3304,
      "▁built": 3305,
      ")\n-": 3306,
      "▁previous": 3307,
      "▁la": 3308,
      "▁industry": 3309,
      "▁questions": 3310,
      "▁sleep": 3311,
      "You": 3312,
      "▁resources": 3313,
      "▁increasing": 3314,
      "▁deb": 3315,
      "ks": 3316,
      "▁six": 3317,
      "▁heat": 3318,
      "ety": 3319,
      "▁inj": 3320,
      "▁conc": 3321,
      "het": 3322,
      "▁parts": 3323,
      "▁While": 3324,
      "go": 3325,
      "ister": 3326,
      "lt": 3327,
      "reng": 3328,
      "raft": 3329,
      "▁diagn": 3330,
      "▁50": 3331,
      "plic": 3332,
      "urs": 3333,
      "):": 3334,
      "ery": 3335,
      "▁stress": 3336,
      "▁total": 3337,
      "eds": 3338,
      "▁surv": 3339,
      "\nF": 3340,
      "▁travel": 3341,
      "▁caused": 3342,
      "▁shows": 3343,
      "▁break": 3344,
      "▁products": 3345,
      "▁Canad": 3346,
      "▁contain": 3347,
      "▁heav": 3348,
      "▁rev": 3349,
      "▁sat": 3350,
      "▁mach": 3351,
      "ai": 3352,
      "▁pric": 3353,
      "▁disord": 3354,
      "hing": 3355,
      "minist": 3356,
      "ips": 3357,
      "▁needed": 3358,
      "▁vari": 3359,
      "ney": 3360,
      "▁ce": 3361,
      "oor": 3362,
      ".\nHow": 3363,
      "▁contact": 3364,
      "▁sex": 3365,
      "▁size": 3366,
      ".\nG": 3367,
      "▁writing": 3368,
      "▁positive": 3369,
      "▁shown": 3370,
      "▁environmental": 3371,
      "▁spread": 3372,
      "ging": 3373,
      "lex": 3374,
      "▁etc": 3375,
      "▁clean": 3376,
      "▁Research": 3377,
      "▁eat": 3378,
      "lor": 3379,
      "▁bird": 3380,
      "ricult": 3381,
      "▁Pe": 3382,
      "▁ste": 3383,
      "▁structure": 3384,
      "erous": 3385,
      "▁13": 3386,
      "ES": 3387,
      "ropri": 3388,
      "inary": 3389,
      "aff": 3390,
      "▁skills": 3391,
      "▁School": 3392,
      "hood": 3393,
      "gar": 3394,
      "▁bring": 3395,
      "▁prec": 3396,
      "ivity": 3397,
      "▁issues": 3398,
      "▁Em": 3399,
      ".\nIf": 3400,
      "▁fru": 3401,
      "▁bacter": 3402,
      "▁wild": 3403,
      "▁regular": 3404,
      "▁average": 3405,
      "▁accept": 3406,
      "ate,": 3407,
      "ales": 3408,
      "▁states": 3409,
      "▁includes": 3410,
      "9,": 3411,
      "irth": 3412,
      "ederal": 3413,
      "▁194": 3414,
      "ufact": 3415,
      "▁vide": 3416,
      "▁Jap": 3417,
      "▁fem": 3418,
      "aving": 3419,
      "▁II": 3420,
      "iction": 3421,
      "osition": 3422,
      "▁lack": 3423,
      "room": 3424,
      "▁deep": 3425,
      "ediate": 3426,
      "▁block": 3427,
      "uck": 3428,
      "▁relative": 3429,
      "ay,": 3430,
      "\nD": 3431,
      "▁mechan": 3432,
      "▁review": 3433,
      "ume": 3434,
      "▁viol": 3435,
      "▁designed": 3436,
      "▁longer": 3437,
      "▁earth": 3438,
      "▁led": 3439,
      "▁computer": 3440,
      "▁response": 3441,
      "▁subst": 3442,
      "rior": 3443,
      "▁greater": 3444,
      "▁poll": 3445,
      "▁target": 3446,
      "ched": 3447,
      "▁cases": 3448,
      "▁Su": 3449,
      "▁provided": 3450,
      "▁Instit": 3451,
      "wh": 3452,
      "▁exc": 3453,
      "ran": 3454,
      "▁integ": 3455,
      "ising": 3456,
      "▁love": 3457,
      "▁music": 3458,
      "rast": 3459,
      "▁century": 3460,
      "▁(P": 3461,
      "rought": 3462,
      "▁believe": 3463,
      "▁original": 3464,
      "AT": 3465,
      "▁slow": 3466,
      "▁factors": 3467,
      "▁reading": 3468,
      "▁causes": 3469,
      "▁respect": 3470,
      "\".": 3471,
      "abet": 3472,
      "▁CO": 3473,
      "usion": 3474,
      "▁face": 3475,
      "▁psych": 3476,
      "▁meaning": 3477,
      "▁written": 3478,
      "▁task": 3479,
      "▁service": 3480,
      "▁themselves": 3481,
      "▁threat": 3482,
      "▁active": 3483,
      "onstr": 3484,
      "ength": 3485,
      "▁streng": 3486,
      "▁drink": 3487,
      "▁damage": 3488,
      "▁helps": 3489,
      "nces": 3490,
      "rench": 3491,
      "▁Co": 3492,
      "as,": 3493,
      "▁carbon": 3494,
      "▁1.": 3495,
      "utions": 3496,
      "▁German": 3497,
      "▁rights": 3498,
      "ext": 3499,
      "▁remov": 3500,
      "asc": 3501,
      "▁it,": 3502,
      "▁encoura": 3503,
      "▁micro": 3504,
      "ores": 3505,
      "▁night": 3506,
      "▁infection": 3507,
      "duc": 3508,
      "▁variety": 3509,
      "new": 3510,
      "▁simply": 3511,
      "\nH": 3512,
      "AR": 3513,
      "▁nam": 3514,
      "▁outside": 3515,
      "dom": 3516,
      "▁compet": 3517,
      "alu": 3518,
      "umb": 3519,
      "vey": 3520,
      "▁region": 3521,
      "ese": 3522,
      "▁origin": 3523,
      "▁movement": 3524,
      "▁Will": 3525,
      "▁compon": 3526,
      "ucle": 3527,
      "▁sometimes": 3528,
      "▁them.": 3529,
      "In": 3530,
      "aily": 3531,
      "▁parents": 3532,
      "▁basic": 3533,
      "▁easy": 3534,
      "rand": 3535,
      "▁bal": 3536,
      "▁harm": 3537,
      "▁tax": 3538,
      "▁|": 3539,
      "▁identify": 3540,
      "▁money": 3541,
      "▁emot": 3542,
      "▁0": 3543,
      "ustom": 3544,
      "▁electric": 3545,
      "▁materials": 3546,
      "▁cit": 3547,
      "▁resist": 3548,
      "ences": 3549,
      "▁image": 3550,
      "▁appl": 3551,
      "▁individuals": 3552,
      "fect": 3553,
      "▁defin": 3554,
      "▁tend": 3555,
      "ze": 3556,
      "▁Sec": 3557,
      "9.": 3558,
      "▁Par": 3559,
      "▁pict": 3560,
      "▁late": 3561,
      "▁particularly": 3562,
      ",\"": 3563,
      "▁successful": 3564,
      "▁ensure": 3565,
      "▁Science": 3566,
      "▁Austral": 3567,
      "▁challeng": 3568,
      "▁animals": 3569,
      "▁p.": 3570,
      "uge": 3571,
      "▁produced": 3572,
      "▁Min": 3573,
      "hy": 3574,
      "16": 3575,
      "▁ple": 3576,
      "ban": 3577,
      "idge": 3578,
      "▁reported": 3579,
      "▁refer": 3580,
      "▁page": 3581,
      "▁terms": 3582,
      "▁company": 3583,
      "▁emb": 3584,
      "▁share": 3585,
      "▁implement": 3586,
      "arily": 3587,
      "ief": 3588,
      "▁force": 3589,
      "▁deal": 3590,
      "▁feet": 3591,
      "▁sust": 3592,
      "▁technolog": 3593,
      "rated": 3594,
      "ached": 3595,
      "▁lat": 3596,
      "▁visit": 3597,
      "▁displ": 3598,
      "▁normal": 3599,
      "▁attempt": 3600,
      "▁aff": 3601,
      "ellow": 3602,
      "▁ox": 3603,
      "15": 3604,
      "▁webs": 3605,
      "▁log": 3606,
      "▁J.": 3607,
      "ribution": 3608,
      "▁App": 3609,
      "▁ap": 3610,
      "▁demonstr": 3611,
      "▁Ed": 3612,
      "▁consist": 3613,
      "mon": 3614,
      "ster": 3615,
      "▁developing": 3616,
      "oses": 3617,
      "▁Pr": 3618,
      "▁coun": 3619,
      "ene": 3620,
      "p://": 3621,
      "▁uses": 3622,
      "▁extreme": 3623,
      "ma": 3624,
      "▁connect": 3625,
      "▁squ": 3626,
      "▁select": 3627,
      "▁wood": 3628,
      "▁vacc": 3629,
      "▁Many": 3630,
      "▁manufact": 3631,
      ".\nAs": 3632,
      "▁dat": 3633,
      "▁King": 3634,
      "irit": 3635,
      "▁Per": 3636,
      "▁--": 3637,
      "▁generally": 3638,
      "imately": 3639,
      "▁aware": 3640,
      "▁magn": 3641,
      "▁independ": 3642,
      "▁25": 3643,
      "▁draw": 3644,
      "▁Pre": 3645,
      "▁hyd": 3646,
      "▁correct": 3647,
      "▁acid": 3648,
      "▁rock": 3649,
      "ropriate": 3650,
      "18": 3651,
      "▁financ": 3652,
      "ership": 3653,
      "▁doing": 3654,
      "▁ir": 3655,
      "▁training": 3656,
      "▁lo": 3657,
      "▁Qu": 3658,
      "▁issue": 3659,
      "▁Japan": 3660,
      "▁speak": 3661,
      "▁prep": 3662,
      "▁services": 3663,
      "▁years,": 3664,
      "▁non-": 3665,
      "We": 3666,
      "▁express": 3667,
      "▁Int": 3668,
      ".\nThere": 3669,
      "▁document": 3670,
      "▁probably": 3671,
      "▁safe": 3672,
      "w.": 3673,
      "▁getting": 3674,
      "set": 3675,
      "▁Count": 3676,
      "▁dou": 3677,
      "▁poor": 3678,
      "imum": 3679,
      "▁Jan": 3680,
      "▁Har": 3681,
      "▁assist": 3682,
      "▁Indian": 3683,
      "▁therefore": 3684,
      "rie": 3685,
      "▁forest": 3686,
      "▁mess": 3687,
      "▁serious": 3688,
      "▁takes": 3689,
      "ground": 3690,
      "▁regul": 3691,
      "ations.": 3692,
      "▁veget": 3693,
      "▁print": 3694,
      "ening": 3695,
      "▁continue": 3696,
      "IN": 3697,
      "▁cover": 3698,
      "▁benefits": 3699,
      "▁experien": 3700,
      "utes": 3701,
      "▁growing": 3702,
      "iat": 3703,
      "▁concent": 3704,
      "14": 3705,
      "▁scientists": 3706,
      "▁culture": 3707,
      "▁Stat": 3708,
      "iot": 3709,
      "▁/": 3710,
      "osing": 3711,
      "▁international": 3712,
      "▁America": 3713,
      "\nO": 3714,
      "▁(M": 3715,
      "ecause": 3716,
      "oud": 3717,
      "hel": 3718,
      "oles": 3719,
      "uth": 3720,
      "▁commit": 3721,
      "▁theory": 3722,
      "where": 3723,
      "▁warm": 3724,
      "▁investig": 3725,
      "▁,": 3726,
      "▁cr": 3727,
      "▁mother": 3728,
      "▁colon": 3729,
      "▁attention": 3730,
      "▁virus": 3731,
      ".\nFor": 3732,
      "▁earl": 3733,
      "osure": 3734,
      "▁primary": 3735,
      "▁fa": 3736,
      "▁European": 3737,
      "▁bab": 3738,
      "▁More": 3739,
      "▁difference": 3740,
      "▁wall": 3741,
      "▁months": 3742,
      "13": 3743,
      "▁involved": 3744,
      "▁true": 3745,
      "▁Ju": 3746,
      "▁mental": 3747,
      "▁div": 3748,
      "▁included": 3749,
      "▁walk": 3750,
      "▁estim": 3751,
      "s:": 3752,
      "ror": 3753,
      "▁looking": 3754,
      "▁Aug": 3755,
      "▁bit": 3756,
      "▁quite": 3757,
      "▁someone": 3758,
      "▁Your": 3759,
      "uary": 3760,
      "bo": 3761,
      "▁third": 3762,
      "olar": 3763,
      "▁instead": 3764,
      "▁habit": 3765,
      "▁town": 3766,
      "▁ful": 3767,
      "overy": 3768,
      "▁0.": 3769,
      "▁decre": 3770,
      "▁dang": 3771,
      "▁allows": 3772,
      "▁sil": 3773,
      "▁vit": 3774,
      "▁communities": 3775,
      "bor": 3776,
      "▁time.": 3777,
      "▁instit": 3778,
      "▁civil": 3779,
      "ice,": 3780,
      "▁teacher": 3781,
      "oly": 3782,
      "cell": 3783,
      "▁Part": 3784,
      "▁eth": 3785,
      "ches": 3786,
      "▁compared": 3787,
      "ment.": 3788,
      "rew": 3789,
      "▁achieve": 3790,
      "▁tiss": 3791,
      "ift": 3792,
      "▁El": 3793,
      "▁capt": 3794,
      "▁thous": 3795,
      "▁tur": 3796,
      "▁hours": 3797,
      "pro": 3798,
      "▁traditional": 3799,
      "ided": 3800,
      "▁Most": 3801,
      "▁determine": 3802,
      "▁fav": 3803,
      "▁inside": 3804,
      "▁sold": 3805,
      "▁multiple": 3806,
      "▁hy": 3807,
      "▁front": 3808,
      "▁expect": 3809,
      "▁scientific": 3810,
      "ned": 3811,
      "▁evalu": 3812,
      "▁benefit": 3813,
      "▁popul": 3814,
      "▁sou": 3815,
      "▁reve": 3816,
      "pe": 3817,
      "▁A.": 3818,
      "▁held": 3819,
      "▁methods": 3820,
      "▁rout": 3821,
      "▁established": 3822,
      "-19": 3823,
      "▁reflect": 3824,
      "▁Educ": 3825,
      "iforn": 3826,
      "▁road": 3827,
      "elling": 3828,
      "icles": 3829,
      "▁unc": 3830,
      "▁card": 3831,
      "▁Dr.": 3832,
      "omet": 3833,
      "-in": 3834,
      "IS": 3835,
      "▁Gl": 3836,
      "▁French": 3837,
      "▁Cons": 3838,
      "▁military": 3839,
      "-h": 3840,
      "▁cross": 3841,
      "arr": 3842,
      "▁critical": 3843,
      "ille": 3844,
      "▁imag": 3845,
      "les,": 3846,
      "▁solution": 3847,
      "ashing": 3848,
      "elt": 3849,
      "istics": 3850,
      "▁altern": 3851,
      "0,": 3852,
      "pril": 3853,
      "right": 3854,
      "▁highly": 3855,
      "term": 3856,
      "▁immediate": 3857,
      "▁Ac": 3858,
      "▁Sm": 3859,
      "▁numbers": 3860,
      "▁goal": 3861,
      "▁(20": 3862,
      "▁sect": 3863,
      "like": 3864,
      "▁dry": 3865,
      "▁thus": 3866,
      "▁factor": 3867,
      ".\nU": 3868,
      "▁negative": 3869,
      "▁additional": 3870,
      "It": 3871,
      "ervation": 3872,
      "useum": 3873,
      "▁easily": 3874,
      "▁(200": 3875,
      "▁gard": 3876,
      "undred": 3877,
      "ance.": 3878,
      "▁severe": 3879,
      "▁although": 3880,
      "nov": 3881,
      "▁offer": 3882,
      "▁birth": 3883,
      "▁forms": 3884,
      "▁extra": 3885,
      "▁custom": 3886,
      "eration": 3887,
      "▁tri": 3888,
      "▁behind": 3889,
      "▁essay": 3890,
      "thern": 3891,
      "▁analy": 3892,
      "▁clin": 3893,
      "▁aspect": 3894,
      "▁solar": 3895,
      "▁section": 3896,
      "▁ideas": 3897,
      "haps": 3898,
      "▁proced": 3899,
      "▁daily": 3900,
      "▁started": 3901,
      "▁Sch": 3902,
      "▁larger": 3903,
      "--": 3904,
      "’ve": 3905,
      "▁broad": 3906,
      "17": 3907,
      "▁central": 3908,
      "p.": 3909,
      "▁official": 3910,
      "itation": 3911,
      "ceed": 3912,
      "▁fight": 3913,
      "dd": 3914,
      "▁West": 3915,
      "▁pack": 3916,
      "▁hor": 3917,
      "▁Art": 3918,
      "▁series": 3919,
      "www.": 3920,
      "vant": 3921,
      "▁host": 3922,
      "▁foot": 3923,
      "▁bad": 3924,
      "▁aud": 3925,
      "▁decision": 3926,
      "▁40": 3927,
      "▁towards": 3928,
      "▁Jes": 3929,
      "ises": 3930,
      "inct": 3931,
      "▁prior": 3932,
      "▁Of": 3933,
      "▁useful": 3934,
      "▁purpose": 3935,
      "▁March": 3936,
      "▁aim": 3937,
      "ying": 3938,
      "▁Rec": 3939,
      "▁fill": 3940,
      "ON": 3941,
      "▁leading": 3942,
      "▁obt": 3943,
      "▁quant": 3944,
      "\nE": 3945,
      "▁protein": 3946,
      "▁schools": 3947,
      "▁Californ": 3948,
      "▁ord": 3949,
      "omb": 3950,
      "cil": 3951,
      "che": 3952,
      "▁industr": 3953,
      "eal": 3954,
      "’ll": 3955,
      "▁transport": 3956,
      "▁enj": 3957,
      "ipl": 3958,
      "▁techniqu": 3959,
      "▁doctor": 3960,
      "▁Oct": 3961,
      "▁ang": 3962,
      "▁shall": 3963,
      "ienc": 3964,
      "▁hot": 3965,
      "▁unique": 3966,
      "▁kids": 3967,
      "ming": 3968,
      "cean": 3969,
      "lection": 3970,
      "▁went": 3971,
      ".com": 3972,
      "yond": 3973,
      "▁stay": 3974,
      "▁rat": 3975,
      "▁that,": 3976,
      "▁accur": 3977,
      "▁soon": 3978,
      "▁fram": 3979,
      "s)": 3980,
      "vention": 3981,
      "hern": 3982,
      "▁Russ": 3983,
      "-3": 3984,
      "rig": 3985,
      "▁Not": 3986,
      "▁Child": 3987,
      "OR": 3988,
      "▁directly": 3989,
      "▁Us": 3990,
      "▁decl": 3991,
      "irl": 3992,
      "▁It’s": 3993,
      "▁continu": 3994,
      "book": 3995,
      "▁tree": 3996,
      "ension": 3997,
      "▁jo": 3998,
      "▁beginning": 3999,
      "▁capital": 4000,
      "▁African": 4001,
      "▁whose": 4002,
      "aches": 4003,
      "oming": 4004,
      "\nR": 4005,
      "ilos": 4006,
      "▁appropriate": 4007,
      "reek": 4008,
      "▁remain": 4009,
      "iverse": 4010,
      "▁Other": 4011,
      "▁1,": 4012,
      "▁bank": 4013,
      "▁added": 4014,
      "▁demand": 4015,
      "erson": 4016,
      "▁safety": 4017,
      "▁har": 4018,
      "▁Department": 4019,
      "rition": 4020,
      "▁M.": 4021,
      "cial": 4022,
      "rogen": 4023,
      "ows": 4024,
      "AN": 4025,
      "▁contribut": 4026,
      "▁lives": 4027,
      "▁influence": 4028,
      "▁item": 4029,
      "▁(F": 4030,
      "▁Although": 4031,
      "▁mount": 4032,
      "▁software": 4033,
      "____": 4034,
      "▁financial": 4035,
      "▁search": 4036,
      "▁private": 4037,
      "▁teachers": 4038,
      "itch": 4039,
      "▁Sept": 4040,
      "-g": 4041,
      "▁ancient": 4042,
      "▁lost": 4043,
      "▁programs": 4044,
      "▁24": 4045,
      "ha": 4046,
      "uman": 4047,
      "▁it's": 4048,
      "▁seems": 4049,
      "▁length": 4050,
      "ase,": 4051,
      "▁sources": 4052,
      "▁progress": 4053,
      "▁mom": 4054,
      "bol": 4055,
      "▁International": 4056,
      "▁society": 4057,
      "head": 4058,
      "gn": 4059,
      "▁communic": 4060,
      "▁Char": 4061,
      "▁events": 4062,
      "▁exact": 4063,
      "▁write": 4064,
      "▁foods": 4065,
      "▁History": 4066,
      "▁propert": 4067,
      "▁dark": 4068,
      "ino": 4069,
      "aries": 4070,
      "ops": 4071,
      "▁fast": 4072,
      "▁labor": 4073,
      "▁http://": 4074,
      "▁Her": 4075,
      "▁sea": 4076,
      "age,": 4077,
      "come": 4078,
      "▁August": 4079,
      "▁contains": 4080,
      "?\n-": 4081,
      "▁requires": 4082,
      "▁protection": 4083,
      "▁Park": 4084,
      "▁nucle": 4085,
      "istry": 4086,
      "▁sustain": 4087,
      "▁you’re": 4088,
      "et,": 4089,
      "▁River": 4090,
      "orthern": 4091,
      "na": 4092,
      "▁Ant": 4093,
      "▁stri": 4094,
      "▁Reg": 4095,
      "▁hundred": 4096,
      "▁policy": 4097,
      "▁interp": 4098,
      "▁limited": 4099,
      "IC": 4100,
      "equ": 4101,
      "sect": 4102,
      "coh": 4103,
      "ius": 4104,
      "ription": 4105,
      "▁is,": 4106,
      "ened": 4107,
      "-y": 4108,
      "▁largest": 4109,
      ".\nAn": 4110,
      "▁miss": 4111,
      "▁administ": 4112,
      "▁Christian": 4113,
      "▁jud": 4114,
      "▁else": 4115,
      "▁except": 4116,
      "vert": 4117,
      "▁capac": 4118,
      "gram": 4119,
      "▁fuel": 4120,
      "▁organiz": 4121,
      "▁brought": 4122,
      "▁answer": 4123,
      "▁April": 4124,
      "▁Here": 4125,
      "▁carry": 4126,
      ".\nWhen": 4127,
      "▁got": 4128,
      "▁Mus": 4129,
      "▁x": 4130,
      "▁Sw": 4131,
      "estic": 4132,
      "▁media": 4133,
      "▁predict": 4134,
      "▁infl": 4135,
      "▁Ret": 4136,
      "▁nearly": 4137,
      "▁agricult": 4138,
      "rag": 4139,
      "▁track": 4140,
      "▁cred": 4141,
      "▁wa": 4142,
      "isions": 4143,
      "▁No": 4144,
      "▁fit": 4145,
      "▁sn": 4146,
      "uk": 4147,
      "▁effort": 4148,
      "▁First": 4149,
      "▁north": 4150,
      "▁stru": 4151,
      "rote": 4152,
      "▁veh": 4153,
      "▁ult": 4154,
      "▁professional": 4155,
      "▁cold": 4156,
      "▁From": 4157,
      "imal": 4158,
      "▁and,": 4159,
      "▁Ke": 4160,
      "▁room": 4161,
      "▁crim": 4162,
      "att": 4163,
      "▁Cor": 4164,
      "vest": 4165,
      "hest": 4166,
      "fort": 4167,
      "arian": 4168,
      "eed": 4169,
      "▁Bar": 4170,
      "▁stra": 4171,
      "ham": 4172,
      "back": 4173,
      "▁Work": 4174,
      "▁video": 4175,
      "ades": 4176,
      "▁table": 4177,
      "▁Tra": 4178,
      "▁located": 4179,
      "itude": 4180,
      "▁ep": 4181,
      "▁mole": 4182,
      "bit": 4183,
      "▁Tw": 4184,
      "rate": 4185,
      "▁adop": 4186,
      "▁points": 4187,
      "\nL": 4188,
      "▁(N": 4189,
      "ody": 4190,
      "▁teaching": 4191,
      "ights": 4192,
      "▁Mon": 4193,
      "▁reach": 4194,
      "▁base": 4195,
      "▁memory": 4196,
      "▁respond": 4197,
      "▁Serv": 4198,
      "▁enjoy": 4199,
      "▁disp": 4200,
      "'re": 4201,
      "alt": 4202,
      "▁rare": 4203,
      "ogen": 4204,
      "▁context": 4205,
      "▁friend": 4206,
      "▁...": 4207,
      "▁fruit": 4208,
      "This": 4209,
      "▁becomes": 4210,
      "▁sugar": 4211,
      "▁establish": 4212,
      "▁Dav": 4213,
      "rael": 4214,
      "urg": 4215,
      "ism,": 4216,
      "▁rapid": 4217,
      "IV": 4218,
      "▁agree": 4219,
      "▁adapt": 4220,
      "▁told": 4221,
      "▁companies": 4222,
      "▁born": 4223,
      "ibrary": 4224,
      "ender": 4225,
      "▁summer": 4226,
      "▁adj": 4227,
      "▁features": 4228,
      "pper": 4229,
      "▁England": 4230,
      "▁typically": 4231,
      "▁2.": 4232,
      "▁My": 4233,
      "▁received": 4234,
      "▁crop": 4235,
      "▁surround": 4236,
      "▁mention": 4237,
      "itect": 4238,
      "▁mix": 4239,
      "hens": 4240,
      "▁exercise": 4241,
      "▁described": 4242,
      "▁equip": 4243,
      "▁member": 4244,
      "▁egg": 4245,
      "▁south": 4246,
      "▁India": 4247,
      "▁command": 4248,
      "▁“The": 4249,
      "▁install": 4250,
      "▁(s": 4251,
      "lim": 4252,
      "ospital": 4253,
      "oke": 4254,
      "▁teeth": 4255,
      "EN": 4256,
      "uit": 4257,
      "▁beaut": 4258,
      "aid": 4259,
      "▁transl": 4260,
      "▁fib": 4261,
      "▁nation": 4262,
      "▁advant": 4263,
      "▁cool": 4264,
      "▁eye": 4265,
      "▁cultural": 4266,
      ".\nWe": 4267,
      "▁performance": 4268,
      "▁(the": 4269,
      "iece": 4270,
      "load": 4271,
      "▁Associ": 4272,
      "▁vict": 4273,
      "▁Mc": 4274,
      "ic,": 4275,
      "▁father": 4276,
      "lands": 4277,
      "iar": 4278,
      "formation": 4279,
      "oring": 4280,
      "▁recommend": 4281,
      "▁quickly": 4282,
      "▁final": 4283,
      "ana": 4284,
      "▁construction": 4285,
      "▁Institute": 4286,
      "▁gives": 4287,
      "resh": 4288,
      "aul": 4289,
      "▁Me": 4290,
      "ence,": 4291,
      "▁monitor": 4292,
      "▁himself": 4293,
      "▁supply": 4294,
      "▁Center": 4295,
      "erate": 4296,
      "ford": 4297,
      "iency": 4298,
      "ively": 4299,
      "▁died": 4300,
      "▁dead": 4301,
      "▁William": 4302,
      "80": 4303,
      "▁breat": 4304,
      "ils": 4305,
      "▁limit": 4306,
      "apter": 4307,
      "▁creating": 4308,
      "mission": 4309,
      "▁tools": 4310,
      "▁citiz": 4311,
      "▁Arm": 4312,
      "rab": 4313,
      "▁President": 4314,
      "-term": 4315,
      "▁der": 4316,
      "▁waste": 4317,
      "cember": 4318,
      "-0": 4319,
      "ED": 4320,
      "▁depend": 4321,
      "▁guid": 4322,
      "▁June": 4323,
      "25": 4324,
      "▁pan": 4325,
      "know": 4326,
      "rong": 4327,
      ".\nBut": 4328,
      "mar": 4329,
      "ent,": 4330,
      "▁saw": 4331,
      "ctions": 4332,
      "▁screen": 4333,
      "▁cou": 4334,
      "\nN": 4335,
      "▁cele": 4336,
      "ellig": 4337,
      "▁spirit": 4338,
      "▁coast": 4339,
      "atur": 4340,
      "▁hyp": 4341,
      "-st": 4342,
      ".\nTo": 4343,
      "▁security": 4344,
      "▁sequ": 4345,
      "▁autom": 4346,
      "▁al.": 4347,
      "▁importance": 4348,
      "▁years.": 4349,
      "▁Lear": 4350,
      "▁reas": 4351,
      "amic": 4352,
      "cohol": 4353,
      "▁unit": 4354,
      "▁religious": 4355,
      "▁gradu": 4356,
      "▁web": 4357,
      "▁middle": 4358,
      "▁responsible": 4359,
      "PA": 4360,
      "▁seek": 4361,
      "▁remains": 4362,
      "▁Church": 4363,
      "▁und": 4364,
      "▁digital": 4365,
      "▁hous": 4366,
      "▁don't": 4367,
      "▁cru": 4368,
      "n,": 4369,
      "▁diabet": 4370,
      "ev": 4371,
      "▁calcul": 4372,
      "inated": 4373,
      "irection": 4374,
      "inate": 4375,
      "▁receive": 4376,
      "▁pet": 4377,
      "▁Bo": 4378,
      "▁bott": 4379,
      "▁beyond": 4380,
      "t.": 4381,
      "40": 4382,
      "▁speed": 4383,
      "ography": 4384,
      "▁Cong": 4385,
      "▁bul": 4386,
      "ovember": 4387,
      "▁September": 4388,
      "▁consequ": 4389,
      "▁Govern": 4390,
      "ology,": 4391,
      "▁season": 4392,
      "itis": 4393,
      "gy": 4394,
      "▁mid": 4395,
      "▁conflic": 4396,
      "▁collection": 4397,
      "60": 4398,
      "mosp": 4399,
      "▁yourself": 4400,
      "▁them,": 4401,
      "▁controll": 4402,
      "▁genetic": 4403,
      "▁the\n": 4404,
      "▁valu": 4405,
      "▁choose": 4406,
      "used": 4407,
      "▁Jesus": 4408,
      "inese": 4409,
      "udd": 4410,
      "▁Washing": 4411,
      "unch": 4412,
      "▁Ec": 4413,
      "exic": 4414,
      "▁tit": 4415,
      "▁explain": 4416,
      "▁providing": 4417,
      "▁teach": 4418,
      "aur": 4419,
      "itable": 4420,
      "▁maintain": 4421,
      "▁Techn": 4422,
      "verse": 4423,
      "▁film": 4424,
      "▁Great": 4425,
      "▁According": 4426,
      "▁fear": 4427,
      "▁January": 4428,
      "▁enh": 4429,
      "▁ten": 4430,
      "▁insp": 4431,
      "sec": 4432,
      "▁star": 4433,
      "▁October": 4434,
      "oes": 4435,
      "▁trial": 4436,
      "▁Israel": 4437,
      "▁overall": 4438,
      "isl": 4439,
      "▁weather": 4440,
      "▁strength": 4441,
      "▁Journal": 4442,
      "▁root": 4443,
      "▁eating": 4444,
      "▁fact,": 4445,
      "\nthe": 4446,
      "▁Inc": 4447,
      "iter": 4448,
      "ira": 4449,
      "iable": 4450,
      "AS": 4451,
      "▁IS": 4452,
      "▁China": 4453,
      "▁July": 4454,
      "atives": 4455,
      "▁Our": 4456,
      "▁federal": 4457,
      "ounds": 4458,
      "ech": 4459,
      "▁year,": 4460,
      "iers": 4461,
      "▁Feb": 4462,
      "▁pregn": 4463,
      "ancy": 4464,
      "▁news": 4465,
      "▁game": 4466,
      "▁elements": 4467,
      "▁winter": 4468,
      "▁rob": 4469,
      "▁legal": 4470,
      "aly": 4471,
      "IT": 4472,
      "▁hom": 4473,
      "▁Even": 4474,
      "▁constit": 4475,
      "▁Pol": 4476,
      "▁books": 4477,
      "rick": 4478,
      "aces": 4479,
      "▁Europe": 4480,
      "▁website": 4481,
      "▁constant": 4482,
      "▁swe": 4483,
      "▁basis": 4484,
      "▁element": 4485,
      "▁visual": 4486,
      "ss": 4487,
      "▁instru": 4488,
      "▁application": 4489,
      "-year": 4490,
      "▁currently": 4491,
      ".\nSt": 4492,
      "▁river": 4493,
      "▁via": 4494,
      "▁values": 4495,
      "▁Lond": 4496,
      "uff": 4497,
      "▁System": 4498,
      "ive,": 4499,
      "▁mal": 4500,
      "anish": 4501,
      "see": 4502,
      "enge": 4503,
      "hile": 4504,
      "issions": 4505,
      "▁won": 4506,
      "▁trying": 4507,
      "rec": 4508,
      "▁Black": 4509,
      "▁purch": 4510,
      "▁Sim": 4511,
      "ribute": 4512,
      "ought": 4513,
      "▁organization": 4514,
      "▁joint": 4515,
      "▁hands": 4516,
      "-A": 4517,
      "aught": 4518,
      "▁Commun": 4519,
      "▁rain": 4520,
      "igr": 4521,
      "▁behavi": 4522,
      "▁former": 4523,
      "▁virt": 4524,
      "▁Cour": 4525,
      ");": 4526,
      "▁powerful": 4527,
      "▁ball": 4528,
      "▁reduced": 4529,
      "▁historical": 4530,
      "▁hope": 4531,
      "amb": 4532,
      "▁leave": 4533,
      "\nThis": 4534,
      "▁perfect": 4535,
      "▁rates": 4536,
      "rical": 4537,
      "ype": 4538,
      "▁thinking": 4539,
      "▁(B": 4540,
      "▁approx": 4541,
      "▁categ": 4542,
      "le,": 4543,
      "▁ice": 4544,
      "lin": 4545,
      "▁exec": 4546,
      "ness,": 4547,
      "▁exposure": 4548,
      "▁file": 4549,
      "▁followed": 4550,
      "▁max": 4551,
      "▁S.": 4552,
      "▁commonly": 4553,
      "izes": 4554,
      "▁king": 4555,
      "ocr": 4556,
      "ine.": 4557,
      "▁trees": 4558,
      "▁High": 4559,
      "▁communication": 4560,
      "one,": 4561,
      "isms": 4562,
      "▁East": 4563,
      "▁doesn’t": 4564,
      "ingu": 4565,
      "▁societ": 4566,
      "▁Dis": 4567,
      "▁identified": 4568,
      "▁Roman": 4569,
      "▁separate": 4570,
      "▁applied": 4571,
      "▁acqu": 4572,
      "▁poly": 4573,
      "▁sch": 4574,
      "▁asked": 4575,
      "▁occup": 4576,
      "▁miles": 4577,
      "off": 4578,
      "▁hon": 4579,
      "▁Mexic": 4580,
      "▁Develop": 4581,
      "▁neigh": 4582,
      "▁discovered": 4583,
      "▁fair": 4584,
      "▁opportunity": 4585,
      "▁December": 4586,
      "▁Day": 4587,
      "▁commerc": 4588,
      "▁DNA": 4589,
      "▁Red": 4590,
      "▁Arch": 4591,
      "▁workers": 4592,
      "▁destro": 4593,
      "▁son": 4594,
      "▁rich": 4595,
      "▁Read": 4596,
      "▁nothing": 4597,
      "▁infect": 4598,
      "▁Vir": 4599,
      "ald": 4600,
      "▁expected": 4601,
      "▁affected": 4602,
      "▁Bi": 4603,
      "▁(c": 4604,
      "▁families": 4605,
      "▁During": 4606,
      "▁direction": 4607,
      "▁Trans": 4608,
      "▁C.": 4609,
      "▁kid": 4610,
      "▁gold": 4611,
      "▁mob": 4612,
      "▁reveal": 4613,
      "ulate": 4614,
      "▁193": 4615,
      "▁map": 4616,
      "▁examples": 4617,
      "▁compar": 4618,
      "fully": 4619,
      "▁shap": 4620,
      "rieved": 4621,
      "▁Mod": 4622,
      "▁eight": 4623,
      "▁named": 4624,
      "aint": 4625,
      "iest": 4626,
      "▁tox": 4627,
      "water": 4628,
      "▁placed": 4629,
      "▁display": 4630,
      "▁cook": 4631,
      "▁humans": 4632,
      "▁mis": 4633,
      "▁device": 4634,
      "▁sett": 4635,
      "▁rule": 4636,
      "edom": 4637,
      "▁Fl": 4638,
      "▁efforts": 4639,
      "▁immune": 4640,
      "▁(or": 4641,
      "▁everything": 4642,
      "▁Inst": 4643,
      "▁images": 4644,
      "▁everyone": 4645,
      "▁enter": 4646,
      "▁emerg": 4647,
      "ruary": 4648,
      "▁church": 4649,
      "▁den": 4650,
      "▁D.": 4651,
      "ore,": 4652,
      "▁Chinese": 4653,
      "▁beg": 4654,
      "▁trad": 4655,
      "▁acad": 4656,
      "▁allowed": 4657,
      "rs": 4658,
      "-C": 4659,
      "▁planet": 4660,
      "▁rise": 4661,
      "▁completely": 4662,
      ".\nAl": 4663,
      "▁diseases": 4664,
      "ste": 4665,
      "▁world.": 4666,
      "▁showed": 4667,
      "-S": 4668,
      "▁degree": 4669,
      "▁Pat": 4670,
      "▁goes": 4671,
      "▁November": 4672,
      "▁60": 4673,
      "▁smaller": 4674,
      "▁Law": 4675,
      "▁feature": 4676,
      "▁wond": 4677,
      "▁stage": 4678,
      "▁:": 4679,
      "22": 4680,
      "▁philos": 4681,
      "amer": 4682,
      "▁ones": 4683,
      "▁wrote": 4684,
      "▁(D": 4685,
      "▁gave": 4686,
      "▁mouth": 4687,
      "ocol": 4688,
      "▁nutri": 4689,
      "▁stor": 4690,
      "▁symbol": 4691,
      "▁assign": 4692,
      "▁Since": 4693,
      "▁cry": 4694,
      "▁etc.": 4695,
      "craft": 4696,
      "AC": 4697,
      "▁measures": 4698,
      "enty": 4699,
      "▁anything": 4700,
      "▁cities": 4701,
      "▁testing": 4702,
      "▁strugg": 4703,
      "oe": 4704,
      "▁places": 4705,
      "ologist": 4706,
      "▁leaves": 4707,
      "▁remember": 4708,
      "10.": 4709,
      "▁Sur": 4710,
      "?\nThe": 4711,
      "▁belief": 4712,
      "▁self-": 4713,
      "inn": 4714,
      "phas": 4715,
      "ics,": 4716,
      "▁stim": 4717,
      "related": 4718,
      "▁presence": 4719,
      "▁letter": 4720,
      "▁antib": 4721,
      "▁San": 4722,
      "▁promot": 4723,
      "▁Coun": 4724,
      "idents": 4725,
      "▁Americans": 4726,
      "▁195": 4727,
      "▁atmosp": 4728,
      "▁emp": 4729,
      "▁relatively": 4730,
      "▁costs": 4731,
      "▁illust": 4732,
      "▁anx": 4733,
      "▁detect": 4734,
      "▁efficient": 4735,
      "▁+": 4736,
      "rupt": 4737,
      "▁coming": 4738,
      "▁woman": 4739,
      "▁incor": 4740,
      "▁majority": 4741,
      "▁Also": 4742,
      "▁recently": 4743,
      "ibly": 4744,
      "▁Are": 4745,
      "ions,": 4746,
      "▁older": 4747,
      "mitted": 4748,
      "▁tou": 4749,
      "▁experiment": 4750,
      "▁Water": 4751,
      "▁Now": 4752,
      "▁liv": 4753,
      "▁worth": 4754,
      "orge": 4755,
      "▁laws": 4756,
      "▁center": 4757,
      "▁situation": 4758,
      "▁evolution": 4759,
      "ously": 4760,
      "▁mut": 4761,
      "▁girl": 4762,
      "▁House": 4763,
      "▁General": 4764,
      "▁differences": 4765,
      "reet": 4766,
      "aced": 4767,
      "▁21": 4768,
      "▁vill": 4769,
      "▁effic": 4770,
      "▁hair": 4771,
      "▁classroom": 4772,
      "▁peace": 4773,
      "▁garden": 4774,
      "▁UK": 4775,
      "▁Because": 4776,
      "▁(E": 4777,
      "ament": 4778,
      "resp": 4779,
      "▁Prof": 4780,
      "▁architect": 4781,
      "▁ast": 4782,
      "▁Val": 4783,
      "▁fully": 4784,
      "▁minutes": 4785,
      "pris": 4786,
      "3)": 4787,
      "▁i": 4788,
      "▁continued": 4789,
      "fl": 4790,
      "▁billion": 4791,
      "raw": 4792,
      "ternal": 4793,
      "▁tests": 4794,
      "▁(R": 4795,
      "▁bacteria": 4796,
      "▁pow": 4797,
      "▁People": 4798,
      "▁Just": 4799,
      "▁life.": 4800,
      "▁forward": 4801,
      "▁user": 4802,
      "▁piece": 4803,
      "▁Program": 4804,
      "▁occurs": 4805,
      "▁fresh": 4806,
      "rief": 4807,
      "▁staff": 4808,
      "▁trade": 4809,
      "ogle": 4810,
      "▁load": 4811,
      "▁expand": 4812,
      "aign": 4813,
      "▁lines": 4814,
      "▁alcohol": 4815,
      "iful": 4816,
      "ache": 4817,
      "2)": 4818,
      "▁bra": 4819,
      "semb": 4820,
      "▁interesting": 4821,
      "\",": 4822,
      "▁style": 4823,
      "▁gain": 4824,
      "▁construct": 4825,
      "rehens": 4826,
      "▁guide": 4827,
      "▁Book": 4828,
      "▁innov": 4829,
      "▁educational": 4830,
      "▁plastic": 4831,
      "1)": 4832,
      "▁existing": 4833,
      "▁techniques": 4834,
      "▁convers": 4835,
      "▁wid": 4836,
      "▁devices": 4837,
      "▁opportunities": 4838,
      "▁processes": 4839,
      "abilities": 4840,
      "▁Conf": 4841,
      "▁property": 4842,
      "▁repe": 4843,
      "▁date": 4844,
      "at,": 4845,
      "ygen": 4846,
      "▁Use": 4847,
      "ios": 4848,
      "▁code": 4849,
      "▁earlier": 4850,
      "▁Jewish": 4851,
      "ulated": 4852,
      "▁Prot": 4853,
      "▁pen": 4854,
      "▁people,": 4855,
      "-4": 4856,
      "▁foreign": 4857,
      "iples": 4858,
      "▁ing": 4859,
      "▁journal": 4860,
      "known": 4861,
      "▁contract": 4862,
      "▁giving": 4863,
      "▁Br": 4864,
      "▁box": 4865,
      "gypt": 4866,
      "clus": 4867,
      "▁(T": 4868,
      "bre": 4869,
      "▁train": 4870,
      "▁huge": 4871,
      "▁tele": 4872,
      "▁offers": 4873,
      "▁absor": 4874,
      "▁forces": 4875,
      "icip": 4876,
      "▁picture": 4877,
      "▁iron": 4878,
      "▁pick": 4879,
      "▁qual": 4880,
      "▁weak": 4881,
      "▁sites": 4882,
      "▁B.": 4883,
      "▁mo": 4884,
      "▁Lord": 4885,
      "-up": 4886,
      "▁NA": 4887,
      "▁milk": 4888,
      "▁board": 4889,
      "iant": 4890,
      "▁collabor": 4891,
      "cious": 4892,
      "▁assum": 4893,
      "▁court": 4894,
      "▁seed": 4895,
      "▁appears": 4896,
      "▁adults": 4897,
      "iated": 4898,
      "▁equal": 4899,
      "▁Retrieved": 4900,
      "70": 4901,
      "▁this,": 4902,
      "wise": 4903,
      "▁version": 4904,
      "ama": 4905,
      "▁formed": 4906,
      "?\nA": 4907,
      "can": 4908,
      "bl": 4909,
      "▁Lat": 4910,
      "uments": 4911,
      "▁perhaps": 4912,
      "▁vitamin": 4913,
      "▁bound": 4914,
      "▁dim": 4915,
      "▁income": 4916,
      ".\nJ": 4917,
      "iring": 4918,
      "▁Com": 4919,
      "▁wrong": 4920,
      "force": 4921,
      "iles": 4922,
      "igen": 4923,
      "ensity": 4924,
      "”,": 4925,
      "▁(H": 4926,
      "▁(G": 4927,
      "▁Environment": 4928,
      "ces,": 4929,
      "▁Education": 4930,
      "▁steps": 4931,
      "rees": 4932,
      "▁addition,": 4933,
      "▁commercial": 4934,
      "▁signs": 4935,
      "tery": 4936,
      "umn": 4937,
      "▁Phil": 4938,
      "▁projects": 4939,
      "▁spect": 4940,
      "▁weeks": 4941,
      "▁breast": 4942,
      "▁native": 4943,
      "▁muscle": 4944,
      "▁park": 4945,
      "▁California": 4946,
      "▁clinical": 4947,
      "▁Their": 4948,
      "▁moving": 4949,
      "▁signal": 4950,
      "▁February": 4951,
      "▁Medic": 4952,
      "▁vo": 4953,
      ".\nTh": 4954,
      "▁mission": 4955,
      "▁plat": 4956,
      "▁treated": 4957,
      "▁choice": 4958,
      "▁util": 4959,
      "▁figure": 4960,
      "▁(L": 4961,
      "raction": 4962,
      "▁\"The": 4963,
      "▁watch": 4964,
      "▁insect": 4965,
      "▁fix": 4966,
      "AL": 4967,
      "▁worked": 4968,
      "▁exhib": 4969,
      "ter,": 4970,
      "▁Each": 4971,
      "▁extremely": 4972,
      "90": 4973,
      "▁compl": 4974,
      "-e": 4975,
      "▁thousands": 4976,
      "▁divid": 4977,
      "▁St.": 4978,
      "el,": 4979,
      "▁celebr": 4980,
      "life": 4981,
      "▁female": 4982,
      "▁alone": 4983,
      "▁Ang": 4984,
      "▁friends": 4985,
      "ony": 4986,
      "▁transfer": 4987,
      "▁carried": 4988,
      "▁said.": 4989,
      "land,": 4990,
      "▁suppl": 4991,
      "▁fert": 4992,
      "▁novel": 4993,
      "▁(f": 4994,
      "▁2010": 4995,
      "▁Pal": 4996,
      "C.": 4997,
      "▁seven": 4998,
      "▁tissue": 4999,
      "edic": 5000,
      "▁highest": 5001,
      "21": 5002,
      "i.e.": 5003,
      "II": 5004,
      "▁excess": 5005,
      "▁tour": 5006,
      "▁users": 5007,
      "▁finding": 5008,
      "ms": 5009,
      "▁phen": 5010,
      "uild": 5011,
      "iox": 5012,
      "▁models": 5013,
      "▁option": 5014,
      "▁status": 5015,
      "▁setting": 5016,
      "▁liqu": 5017,
      "HE": 5018,
      "▁R.": 5019,
      "▁moment": 5020,
      "▁Egypt": 5021,
      "▁(p": 5022,
      "ue,": 5023,
      "▁Colle": 5024,
      "▁Cur": 5025,
      ".\nYou": 5026,
      "▁attract": 5027,
      "g.": 5028,
      "▁industrial": 5029,
      "▁Western": 5030,
      "▁believed": 5031,
      "rot": 5032,
      "▁sac": 5033,
      "▁scen": 5034,
      "▁rules": 5035,
      "▁Green": 5036,
      "ula": 5037,
      "▁elim": 5038,
      "▁connection": 5039,
      "orial": 5040,
      "▁metal": 5041,
      "▁baby": 5042,
      "▁favor": 5043,
      "▁increases": 5044,
      "▁wat": 5045,
      "uls": 5046,
      "▁explore": 5047,
      "que": 5048,
      "able,": 5049,
      "▁therapy": 5050,
      "DA": 5051,
      "change": 5052,
      "▁survey": 5053,
      "ors,": 5054,
      "wide": 5055,
      "ests": 5056,
      "omas": 5057,
      "▁actual": 5058,
      "▁significantly": 5059,
      "▁save": 5060,
      "▁emphas": 5061,
      "▁Aut": 5062,
      "house": 5063,
      "hemat": 5064,
      "ulum": 5065,
      "▁urban": 5066,
      "▁Let": 5067,
      "▁Rev": 5068,
      "tical": 5069,
      "▁note": 5070,
      "▁reality": 5071,
      "ara": 5072,
      "▁illness": 5073,
      "on.": 5074,
      "▁running": 5075,
      "cles": 5076,
      "▁eyes": 5077,
      "▁truth": 5078,
      "▁distribution": 5079,
      "▁defined": 5080,
      "▁Tim": 5081,
      "▁intellig": 5082,
      "200": 5083,
      "▁objects": 5084,
      "unction": 5085,
      "▁world,": 5086,
      "▁perspect": 5087,
      "▁dyn": 5088,
      "▁neu": 5089,
      "▁said,": 5090,
      "▁chance": 5091,
      "zz": 5092,
      "\nG": 5093,
      "▁practices": 5094,
      "▁rot": 5095,
      "▁vary": 5096,
      "▁Don": 5097,
      "▁sample": 5098,
      "▁shape": 5099,
      "▁eventually": 5100,
      "enth": 5101,
      "▁apply": 5102,
      "ographic": 5103,
      "▁Bra": 5104,
      "▁Public": 5105,
      "ource": 5106,
      "▁hear": 5107,
      "▁accurate": 5108,
      "▁system,": 5109,
      "▁resource": 5110,
      "road": 5111,
      "▁Inter": 5112,
      "▁chronic": 5113,
      "▁contrast": 5114,
      "▁cycle": 5115,
      "▁remove": 5116,
      "▁reasons": 5117,
      "▁slight": 5118,
      "▁Mic": 5119,
      "▁introduced": 5120,
      "▁faith": 5121,
      "▁Mat": 5122,
      "▁confirm": 5123,
      "▁Over": 5124,
      "▁ship": 5125,
      "▁serve": 5126,
      "▁Mary": 5127,
      "▁challenge": 5128,
      "▁Africa": 5129,
      "▁agg": 5130,
      "▁3.": 5131,
      "char": 5132,
      "▁blue": 5133,
      "▁observed": 5134,
      "▁topic": 5135,
      "▁speech": 5136,
      "▁literature": 5137,
      "▁Fin": 5138,
      "▁Greek": 5139,
      "▁surger": 5140,
      "▁president": 5141,
      "▁changed": 5142,
      "▁day,": 5143,
      "▁cand": 5144,
      "ortunate": 5145,
      "▁alternative": 5146,
      "▁Spec": 5147,
      "pped": 5148,
      "▁UN": 5149,
      "▁machine": 5150,
      "▁approximately": 5151,
      "EC": 5152,
      "▁sexual": 5153,
      "▁becoming": 5154,
      "ilit": 5155,
      "▁lib": 5156,
      "▁suggests": 5157,
      "▁price": 5158,
      "▁2012": 5159,
      "▁store": 5160,
      "▁Council": 5161,
      "ship": 5162,
      "▁equipment": 5163,
      "▁ves": 5164,
      "▁location": 5165,
      "▁initial": 5166,
      "▁graph": 5167,
      "roph": 5168,
      "▁Mich": 5169,
      "▁easier": 5170,
      "▁nutrition": 5171,
      "▁stem": 5172,
      "▁system.": 5173,
      "▁distinct": 5174,
      "▁opin": 5175,
      "▁heavy": 5176,
      "▁feeling": 5177,
      "▁City": 5178,
      "▁legisl": 5179,
      "▁applications": 5180,
      "▁consumption": 5181,
      "▁Des": 5182,
      "▁stream": 5183,
      "ician": 5184,
      "mark": 5185,
      "▁capacity": 5186,
      "▁presented": 5187,
      "▁Mor": 5188,
      "▁oxygen": 5189,
      "▁(and": 5190,
      "s.”": 5191,
      "iding": 5192,
      "/or": 5193,
      "▁life,": 5194,
      "▁famous": 5195,
      "▁water,": 5196,
      "▁vot": 5197,
      "▁(b": 5198,
      "▁course,": 5199,
      "▁destroy": 5200,
      "▁estimated": 5201,
      "▁passed": 5202,
      "ry,": 5203,
      "ise,": 5204,
      "oration": 5205,
      "▁Dec": 5206,
      "▁nuclear": 5207,
      "ure.": 5208,
      "▁conducted": 5209,
      "▁Vol": 5210,
      "iec": 5211,
      "▁fig": 5212,
      "▁household": 5213,
      "▁E.": 5214,
      "▁ign": 5215,
      "▁David": 5216,
      "ulf": 5217,
      "encies": 5218,
      "▁mag": 5219,
      "▁desp": 5220,
      "emy": 5221,
      "▁male": 5222,
      "▁Net": 5223,
      "▁bone": 5224,
      "porary": 5225,
      "▁burn": 5226,
      "anks": 5227,
      "▁dri": 5228,
      "▁reference": 5229,
      "▁instruct": 5230,
      "▁Children": 5231,
      "▁trust": 5232,
      "▁released": 5233,
      "cast": 5234,
      "edia": 5235,
      "”.": 5236,
      "▁flood": 5237,
      "▁causing": 5238,
      "▁Found": 5239,
      "icial": 5240,
      "ous,": 5241,
      "▁scale": 5242,
      "ain,": 5243,
      "▁standards": 5244,
      "▁combination": 5245,
      "▁esc": 5246,
      "och": 5247,
      "ices,": 5248,
      "ij": 5249,
      "▁“I": 5250,
      "ndrom": 5251,
      "▁distance": 5252,
      "iny": 5253,
      "aste": 5254,
      "▁cod": 5255,
      "▁drugs": 5256,
      "OS": 5257,
      "ically,": 5258,
      "▁College": 5259,
      "ments,": 5260,
      "▁energ": 5261,
      "hors": 5262,
      "▁inflamm": 5263,
      "ees": 5264,
      "▁college": 5265,
      "▁findings": 5266,
      "....": 5267,
      "care": 5268,
      "cop": 5269,
      "▁learned": 5270,
      "▁bottom": 5271,
      "▁organic": 5272,
      "▁Human": 5273,
      "▁trig": 5274,
      "24": 5275,
      "cular": 5276,
      "▁expert": 5277,
      "ares": 5278,
      "▁firm": 5279,
      "▁tub": 5280,
      "ognitive": 5281,
      "-5": 5282,
      "▁Social": 5283,
      "▁univers": 5284,
      "▁clos": 5285,
      "▁moved": 5286,
      "▁Che": 5287,
      "▁ocean": 5288,
      "23": 5289,
      "▁annual": 5290,
      "▁independent": 5291,
      "▁can’t": 5292,
      "▁isol": 5293,
      "▁email": 5294,
      "ET": 5295,
      "▁drop": 5296,
      "asion": 5297,
      "ica": 5298,
      "▁buy": 5299,
      "▁2011": 5300,
      "▁Rel": 5301,
      "▁reducing": 5302,
      "▁Av": 5303,
      "ken": 5304,
      "ills": 5305,
      "▁resulting": 5306,
      "▁and/or": 5307,
      "▁planning": 5308,
      "▁(e.": 5309,
      "▁23": 5310,
      "▁experim": 5311,
      "▁numerous": 5312,
      "rest": 5313,
      "▁release": 5314,
      "▁Under": 5315,
      "tered": 5316,
      "▁widely": 5317,
      "ines,": 5318,
      "▁campaign": 5319,
      "▁covered": 5320,
      "aus": 5321,
      "▁doub": 5322,
      "▁186": 5323,
      "▁Japanese": 5324,
      "▁Web": 5325,
      "▁transform": 5326,
      ".\nK": 5327,
      "▁prepar": 5328,
      "▁80": 5329,
      "▁sand": 5330,
      "78": 5331,
      "antic": 5332,
      "▁hospital": 5333,
      "▁academic": 5334,
      "▁bed": 5335,
      "▁internal": 5336,
      "er’s": 5337,
      "▁Dr": 5338,
      "olid": 5339,
      "▁gets": 5340,
      "▁prefer": 5341,
      "▁hop": 5342,
      "D,": 5343,
      "▁starting": 5344,
      "lick": 5345,
      "▁Internet": 5346,
      ".\nOn": 5347,
      "▁2013": 5348,
      "5%": 5349,
      "▁spot": 5350,
      "▁battle": 5351,
      "▁Why": 5352,
      "▁Therefore": 5353,
      "▁Republic": 5354,
      "amental": 5355,
      "▁names": 5356,
      "▁James": 5357,
      "▁190": 5358,
      "▁horm": 5359,
      "▁office": 5360,
      "ession": 5361,
      "▁pal": 5362,
      "▁thick": 5363,
      "▁2014": 5364,
      "ated,": 5365,
      "▁#": 5366,
      "▁alg": 5367,
      "▁tooth": 5368,
      "▁frequently": 5369,
      "▁partn": 5370,
      "▁involves": 5371,
      "▁vessel": 5372,
      "▁long-term": 5373,
      "▁birds": 5374,
      "▁Food": 5375,
      "▁freedom": 5376,
      "▁connected": 5377,
      "▁Museum": 5378,
      "isher": 5379,
      "▁components": 5380,
      "▁(I": 5381,
      "▁territ": 5382,
      "▁minor": 5383,
      "▁trend": 5384,
      "▁actions": 5385,
      "▁radio": 5386,
      "▁year.": 5387,
      "▁Ob": 5388,
      "▁Tur": 5389,
      "▁replace": 5390,
      "▁referred": 5391,
      "▁Then": 5392,
      "▁Spanish": 5393,
      "▁performed": 5394,
      "▁Plan": 5395,
      "▁mostly": 5396,
      "ar,": 5397,
      "EM": 5398,
      "▁challenges": 5399,
      "▁solid": 5400,
      "▁click": 5401,
      "▁Paul": 5402,
      "eared": 5403,
      "▁counter": 5404,
      "▁balance": 5405,
      "▁stories": 5406,
      "▁emissions": 5407,
      "▁background": 5408,
      "▁turned": 5409,
      "▁cris": 5410,
      "▁upper": 5411,
      "ias": 5412,
      "▁reprodu": 5413,
      "▁aspects": 5414,
      "▁trib": 5415,
      "▁encourage": 5416,
      "▁component": 5417,
      "▁Union": 5418,
      "▁Canada": 5419,
      "bal": 5420,
      "▁reports": 5421,
      "ocal": 5422,
      "▁output": 5423,
      "▁patterns": 5424,
      "ault": 5425,
      "▁recommended": 5426,
      "m.": 5427,
      "rack": 5428,
      "ching": 5429,
      "▁structures": 5430,
      "▁glass": 5431,
      "▁vul": 5432,
      "▁properties": 5433,
      "▁Mark": 5434,
      "▁Test": 5435,
      "bed": 5436,
      "or.": 5437,
      "▁advanced": 5438,
      "eding": 5439,
      "ressive": 5440,
      "con": 5441,
      "A,": 5442,
      "▁2,": 5443,
      "age.": 5444,
      "▁cloud": 5445,
      "airs": 5446,
      "iance": 5447,
      "▁circum": 5448,
      "▁grant": 5449,
      "▁adjust": 5450,
      "▁definition": 5451,
      "respond": 5452,
      "anging": 5453,
      "▁George": 5454,
      "▁island": 5455,
      "hetic": 5456,
      "▁upd": 5457,
      "▁Gra": 5458,
      "▁wanted": 5459,
      "▁drive": 5460,
      "▁incorpor": 5461,
      "What": 5462,
      "▁Washington": 5463,
      "ps://": 5464,
      "▁strategies": 5465,
      "▁tum": 5466,
      "is.": 5467,
      "▁economy": 5468,
      ".\nV": 5469,
      "▁copy": 5470,
      "▁Sam": 5471,
      "▁trou": 5472,
      "▁injur": 5473,
      "▁hand,": 5474,
      "▁race": 5475,
      "osystem": 5476,
      "▁Rober": 5477,
      "▁clearly": 5478,
      "▁nor": 5479,
      "▁whom": 5480,
      "▁conv": 5481,
      "▁comprehens": 5482,
      "▁details": 5483,
      "▁Organ": 5484,
      "▁dram": 5485,
      "▁exactly": 5486,
      "riculum": 5487,
      "▁Once": 5488,
      "▁unf": 5489,
      "▁emotional": 5490,
      "▁experienced": 5491,
      "▁landsc": 5492,
      "▁anyone": 5493,
      "▁impl": 5494,
      "▁pp.": 5495,
      "▁Cath": 5496,
      "▁diss": 5497,
      "▁lung": 5498,
      "▁immediately": 5499,
      "essor": 5500,
      "▁regarding": 5501,
      "rog": 5502,
      "▁Fore": 5503,
      "▁excell": 5504,
      "▁changing": 5505,
      "▁sav": 5506,
      "▁Tex": 5507,
      "▁aid": 5508,
      "▁thr": 5509,
      "▁belong": 5510,
      "▁involve": 5511,
      "▁2009": 5512,
      "▁victim": 5513,
      "▁sort": 5514,
      "▁calc": 5515,
      "▁Sy": 5516,
      "▁complic": 5517,
      "▁Society": 5518,
      "▁resistance": 5519,
      "▁round": 5520,
      "▁math": 5521,
      "▁expression": 5522,
      "▁interpret": 5523,
      "▁helped": 5524,
      "PS": 5525,
      "▁reb": 5526,
      "en.": 5527,
      "▁work,": 5528,
      "ework": 5529,
      "▁22": 5530,
      "▁synt": 5531,
      ".\nOne": 5532,
      "ell,": 5533,
      "▁leads": 5534,
      "rum": 5535,
      "onic": 5536,
      "▁pollution": 5537,
      "▁bord": 5538,
      "▁god": 5539,
      "▁depending": 5540,
      ".\n(": 5541,
      "▁http://www.": 5542,
      "▁inh": 5543,
      "▁lived": 5544,
      "ux": 5545,
      "▁cases,": 5546,
      "atically": 5547,
      "stitution": 5548,
      "▁ready": 5549,
      "▁reserv": 5550,
      "▁heard": 5551,
      "▁relevant": 5552,
      "▁stock": 5553,
      "▁Sk": 5554,
      "▁gene": 5555,
      "othes": 5556,
      "▁plans": 5557,
      "▁mist": 5558,
      "▁defic": 5559,
      "▁kept": 5560,
      "▁London": 5561,
      "place": 5562,
      "▁grad": 5563,
      "vis": 5564,
      "▁philosoph": 5565,
      "▁Tod": 5566,
      "▁input": 5567,
      "▁Dem": 5568,
      "aling": 5569,
      "▁beautiful": 5570,
      "▁citizens": 5571,
      "▁square": 5572,
      "AM": 5573,
      "-8": 5574,
      "▁Air": 5575,
      "ped": 5576,
      "▁sem": 5577,
      "▁temperatures": 5578,
      "▁Project": 5579,
      "▁Bel": 5580,
      "▁core": 5581,
      "rm": 5582,
      "▁promote": 5583,
      "▁fol": 5584,
      "▁Mount": 5585,
      "▁HIV": 5586,
      "▁Sun": 5587,
      "▁2015": 5588,
      "▁(199": 5589,
      "ycl": 5590,
      "itz": 5591,
      "▁options": 5592,
      "co": 5593,
      "▁meeting": 5594,
      "rep": 5595,
      "RE": 5596,
      "▁wealth": 5597,
      "▁Mal": 5598,
      "▁helping": 5599,
      "▁Its": 5600,
      "▁functions": 5601,
      "met": 5602,
      "upp": 5603,
      "▁prepared": 5604,
      "unk": 5605,
      "▁meant": 5606,
      "▁Congress": 5607,
      "▁vision": 5608,
      "ism.": 5609,
      "▁comfort": 5610,
      "▁Port": 5611,
      "org/": 5612,
      "▁“A": 5613,
      "▁cast": 5614,
      "▁items": 5615,
      "▁southern": 5616,
      "▁linked": 5617,
      "▁2008": 5618,
      "▁Every": 5619,
      "▁describe": 5620,
      "les.": 5621,
      "word": 5622,
      "▁specif": 5623,
      "▁high-": 5624,
      "▁symptom": 5625,
      "\n(": 5626,
      "▁spring": 5627,
      "▁ST": 5628,
      "▁isn’t": 5629,
      "St": 5630,
      "▁northern": 5631,
      "▁credit": 5632,
      "▁Rich": 5633,
      "▁please": 5634,
      "▁assessment": 5635,
      "ate.": 5636,
      "▁consult": 5637,
      "▁participants": 5638,
      "▁presc": 5639,
      "-M": 5640,
      "▁that’s": 5641,
      "▁Hen": 5642,
      "▁leaders": 5643,
      "▁La": 5644,
      "mat": 5645,
      "▁generation": 5646,
      "a)": 5647,
      "iveness": 5648,
      "▁pip": 5649,
      "isation": 5650,
      "▁motiv": 5651,
      "▁invent": 5652,
      "▁datab": 5653,
      "▁secret": 5654,
      "▁volunt": 5655,
      "▁90": 5656,
      "▁discover": 5657,
      "▁Phys": 5658,
      "h,": 5659,
      "board": 5660,
      "▁Isl": 5661,
      "▁served": 5662,
      "▁atmosphere": 5663,
      "▁spent": 5664,
      "▁Hel": 5665,
      "yt": 5666,
      "▁day.": 5667,
      "arrow": 5668,
      "▁piec": 5669,
      "▁exposed": 5670,
      "olved": 5671,
      "▁authors": 5672,
      "▁manufacture": 5673,
      "leg": 5674,
      "▁decided": 5675,
      "-6": 5676,
      "▁County": 5677,
      "▁yellow": 5678,
      "▁cere": 5679,
      "▁diabetes": 5680,
      "▁experiences": 5681,
      "▁conclud": 5682,
      "▁Association": 5683,
      "▁reduction": 5684,
      "▁platform": 5685,
      "th,": 5686,
      "▁Sub": 5687,
      "▁song": 5688,
      "▁reached": 5689,
      "▁Rem": 5690,
      "▁countr": 5691,
      "▁highlight": 5692,
      "▁See": 5693,
      "▁west": 5694,
      "▁regions": 5695,
      "▁disease,": 5696,
      "ras": 5697,
      "▁mel": 5698,
      "-related": 5699,
      "▁(in": 5700,
      "-like": 5701,
      "75": 5702,
      "▁master": 5703,
      "▁smok": 5704,
      "▁height": 5705,
      "4)": 5706,
      "ishing": 5707,
      "▁revolution": 5708,
      "wood": 5709,
      "▁liquid": 5710,
      "▁surrounding": 5711,
      "-B": 5712,
      "▁26": 5713,
      "▁spend": 5714,
      "ite,": 5715,
      "▁motor": 5716,
      "▁Ir": 5717,
      "oyal": 5718,
      "▁interested": 5719,
      "▁yield": 5720,
      "▁behaviour": 5721,
      "with": 5722,
      "▁manage": 5723,
      "▁pun": 5724,
      "▁discussion": 5725,
      "▁determined": 5726,
      "▁previously": 5727,
      "onomic": 5728,
      "astern": 5729,
      "lease": 5730,
      "▁mainly": 5731,
      "▁ago": 5732,
      "▁P.": 5733,
      "26": 5734,
      "▁28": 5735,
      "ager": 5736,
      "▁die": 5737,
      "▁Island": 5738,
      "tee": 5739,
      "ST": 5740,
      "▁Off": 5741,
      "oper": 5742,
      "▁70": 5743,
      "▁mort": 5744,
      "add": 5745,
      "enced": 5746,
      "▁Central": 5747,
      "▁Development": 5748,
      "▁appoint": 5749,
      "▁instruction": 5750,
      "▁practical": 5751,
      "▁conver": 5752,
      "▁Dist": 5753,
      "ifying": 5754,
      "▁killed": 5755,
      "▁Ev": 5756,
      "▁(m": 5757,
      "▁advantage": 5758,
      "▁jour": 5759,
      "▁correspond": 5760,
      "ributed": 5761,
      "▁hit": 5762,
      "ces.": 5763,
      "rence": 5764,
      "▁century,": 5765,
      "ball": 5766,
      "▁nav": 5767,
      "▁layer": 5768,
      "▁amounts": 5769,
      "berg": 5770,
      "al.": 5771,
      "▁Arab": 5772,
      "▁Def": 5773,
      "▁extensive": 5774,
      "▁Students": 5775,
      "▁Bas": 5776,
      "ant,": 5777,
      "-th": 5778,
      "acific": 5779,
      "▁violence": 5780,
      "▁charge": 5781,
      "▁fine": 5782,
      "▁vulner": 5783,
      "▁Ser": 5784,
      "▁shared": 5785,
      "in.": 5786,
      "▁allowing": 5787,
      "ary,": 5788,
      "▁statement": 5789,
      "able.": 5790,
      "elines": 5791,
      "▁bud": 5792,
      "nic": 5793,
      "▁noted": 5794,
      "▁people.": 5795,
      "▁syn": 5796,
      "▁Di": 5797,
      "alle": 5798,
      "▁brother": 5799,
      "▁electrical": 5800,
      "▁Miss": 5801,
      "▁storm": 5802,
      "▁dro": 5803,
      "▁flex": 5804,
      "▁Acad": 5805,
      "anch": 5806,
      "alled": 5807,
      "mp": 5808,
      "'ll": 5809,
      "▁Government": 5810,
      "▁lesson": 5811,
      "ounced": 5812,
      "rastruct": 5813,
      "▁Mac": 5814,
      "▁Jer": 5815,
      "▁H.": 5816,
      "▁requirements": 5817,
      "▁pul": 5818,
      "▁technologies": 5819,
      "▁L.": 5820,
      "▁study,": 5821,
      "D.": 5822,
      "C,": 5823,
      "▁contribute": 5824,
      "oma": 5825,
      "▁sufficient": 5826,
      "▁Court": 5827,
      "▁reaction": 5828,
      "▁institution": 5829,
      "▁colour": 5830,
      "▁electricity": 5831,
      "inating": 5832,
      "standing": 5833,
      "▁NASA": 5834,
      "which": 5835,
      "▁hur": 5836,
      "ormal": 5837,
      "ample": 5838,
      "▁fluid": 5839,
      "otic": 5840,
      "ida": 5841,
      "▁party": 5842,
      "ero": 5843,
      "▁2016": 5844,
      "▁looks": 5845,
      "▁(see": 5846,
      "▁Old": 5847,
      "▁bond": 5848,
      "▁renew": 5849,
      "▁camer": 5850,
      ".\nWhile": 5851,
      "▁2020": 5852,
      "rans": 5853,
      "OT": 5854,
      "▁Sal": 5855,
      "▁Ital": 5856,
      "lig": 5857,
      "ixt": 5858,
      "▁https://": 5859,
      "▁straight": 5860,
      "▁organizations": 5861,
      "28": 5862,
      "ists,": 5863,
      "▁offered": 5864,
      "▁phenomen": 5865,
      "▁anti-": 5866,
      "▁supported": 5867,
      "▁professor": 5868,
      "men": 5869,
      "▁Mart": 5870,
      "▁notice": 5871,
      "▁mentioned": 5872,
      "▁primarily": 5873,
      "field": 5874,
      "rete": 5875,
      "▁Lou": 5876,
      "▁Virgin": 5877,
      "▁records": 5878,
      "▁al.,": 5879,
      "▁proposed": 5880,
      "▁Civil": 5881,
      "▁crucial": 5882,
      ".\nThese": 5883,
      "▁improved": 5884,
      "▁forced": 5885,
      "▁brief": 5886,
      "▁charact": 5887,
      "▁well.": 5888,
      "▁risks": 5889,
      "▁marri": 5890,
      "▁Hol": 5891,
      "▁vital": 5892,
      "▁characteristics": 5893,
      "▁dangerous": 5894,
      "ett": 5895,
      "▁foss": 5896,
      "osite": 5897,
      "▁creation": 5898,
      "▁win": 5899,
      "erences": 5900,
      "▁decisions": 5901,
      "▁lic": 5902,
      "roc": 5903,
      "espite": 5904,
      "▁experts": 5905,
      "▁occurred": 5906,
      "nam": 5907,
      "\n“": 5908,
      "▁technical": 5909,
      "urance": 5910,
      "▁largely": 5911,
      "▁2007": 5912,
      "▁sustainable": 5913,
      "▁coord": 5914,
      "▁stick": 5915,
      "▁toxic": 5916,
      "▁depression": 5917,
      "▁indicate": 5918,
      "▁message": 5919,
      "▁digest": 5920,
      "▁technique": 5921,
      "ist,": 5922,
      "▁uns": 5923,
      "▁argument": 5924,
      "▁doll": 5925,
      "key": 5926,
      "▁Dise": 5927,
      "▁fort": 5928,
      "▁grass": 5929,
      "▁execut": 5930,
      "▁ecosystem": 5931,
      "ologists": 5932,
      "roke": 5933,
      "ages,": 5934,
      "▁coal": 5935,
      "ander": 5936,
      "rian": 5937,
      "ping": 5938,
      "ossible": 5939,
      "▁ideal": 5940,
      "ns": 5941,
      "rows": 5942,
      "▁lov": 5943,
      "▁certainly": 5944,
      "▁intended": 5945,
      "▁volume": 5946,
      "▁east": 5947,
      "▁instance,": 5948,
      "▁perman": 5949,
      "▁(d": 5950,
      "spect": 5951,
      "▁Met": 5952,
      "▁susp": 5953,
      "▁happens": 5954,
      "▁gar": 5955,
      "▁hyper": 5956,
      "▁solutions": 5957,
      "▁showing": 5958,
      "▁storage": 5959,
      "▁hearing": 5960,
      "▁surpris": 5961,
      "apers": 5962,
      "▁bright": 5963,
      "▁focused": 5964,
      "aughter": 5965,
      "▁Writ": 5966,
      "▁bodies": 5967,
      "us.": 5968,
      "▁operating": 5969,
      "iling": 5970,
      "35": 5971,
      "▁faster": 5972,
      "▁conflict": 5973,
      "▁Franc": 5974,
      "▁White": 5975,
      "▁metab": 5976,
      "▁allerg": 5977,
      "▁Ber": 5978,
      "rich": 5979,
      "▁189": 5980,
      "▁principles": 5981,
      "▁Som": 5982,
      "▁Further": 5983,
      "▁roll": 5984,
      "▁keeping": 5985,
      "▁purs": 5986,
      "▁obvious": 5987,
      "▁meat": 5988,
      "ii": 5989,
      "▁notes": 5990,
      "▁*": 5991,
      "▁words,": 5992,
      "▁responsibility": 5993,
      ".\nAt": 5994,
      "▁(18": 5995,
      "ium,": 5996,
      "▁settle": 5997,
      "▁water.": 5998,
      "ressed": 5999,
      "▁domestic": 6000,
      "▁disorder": 6001,
      "▁clim": 6002,
      "▁Fre": 6003,
      "▁Muslim": 6004,
      "▁Space": 6005,
      ".\nCh": 6006,
      "▁phase": 6007,
      "▁double": 6008,
      "▁gram": 6009,
      "▁despite": 6010,
      "▁Atl": 6011,
      "▁Ap": 6012,
      "roid": 6013,
      "▁degrees": 6014,
      "▁awareness": 6015,
      "RI": 6016,
      "▁conservation": 6017,
      "s,”": 6018,
      "olute": 6019,
      "A.": 6020,
      "▁haz": 6021,
      "29": 6022,
      "\nand": 6023,
      "▁liver": 6024,
      "li": 6025,
      "iences": 6026,
      "▁neighbor": 6027,
      "▁remained": 6028,
      "▁all,": 6029,
      "▁Class": 6030,
      "▁measured": 6031,
      "▁vast": 6032,
      "▁Second": 6033,
      "▁nerv": 6034,
      "▁Medical": 6035,
      "▁policies": 6036,
      "▁grade": 6037,
      "▁wonder": 6038,
      "▁Cle": 6039,
      "▁way,": 6040,
      "▁grand": 6041,
      "▁effectively": 6042,
      "▁goals": 6043,
      "▁populations": 6044,
      "▁Therefore,": 6045,
      "▁vehicle": 6046,
      "▁request": 6047,
      "▁vent": 6048,
      "▁failure": 6049,
      "uration": 6050,
      "▁Australia": 6051,
      "▁recorded": 6052,
      "▁cert": 6053,
      "ants,": 6054,
      "▁genes": 6055,
      "▁Ben": 6056,
      "vision": 6057,
      "▁refers": 6058,
      "▁habitat": 6059,
      "▁affects": 6060,
      "▁didn’t": 6061,
      "ception": 6062,
      "▁27": 6063,
      "ht": 6064,
      "iatric": 6065,
      "med": 6066,
      "▁kinds": 6067,
      "▁Sen": 6068,
      "▁maximum": 6069,
      "-le": 6070,
      "▁Direct": 6071,
      "ive.": 6072,
      "bert": 6073,
      "ates,": 6074,
      "▁familiar": 6075,
      "▁fundamental": 6076,
      "▁syndrom": 6077,
      "▁oral": 6078,
      "▁external": 6079,
      "▁agricultural": 6080,
      "▁combined": 6081,
      "arter": 6082,
      "▁send": 6083,
      "▁wet": 6084,
      "27": 6085,
      "▁mathemat": 6086,
      "arp": 6087,
      "▁continues": 6088,
      "▁diam": 6089,
      "▁typical": 6090,
      "▁felt": 6091,
      "▁cognitive": 6092,
      "▁onto": 6093,
      ".\n2.": 6094,
      "EL": 6095,
      "'ve": 6096,
      "what": 6097,
      "▁nit": 6098,
      "▁blog": 6099,
      "▁fing": 6100,
      "▁Inf": 6101,
      "▁rail": 6102,
      "▁Both": 6103,
      "▁(U": 6104,
      "▁kil": 6105,
      "45": 6106,
      "cript": 6107,
      "▁biological": 6108,
      "▁Elect": 6109,
      "▁excellent": 6110,
      "▁ju": 6111,
      "▁mere": 6112,
      "ificial": 6113,
      ".\nSome": 6114,
      ".\nWith": 6115,
      "▁radiation": 6116,
      "do": 6117,
      "▁immun": 6118,
      "i:": 6119,
      "▁AN": 6120,
      "▁procedure": 6121,
      "inent": 6122,
      "▁removed": 6123,
      "▁Thomas": 6124,
      "▁greatest": 6125,
      "▁explan": 6126,
      "ton,": 6127,
      "inant": 6128,
      "▁facilities": 6129,
      "othe": 6130,
      "eck": 6131,
      "▁satis": 6132,
      "▁taught": 6133,
      "▁manner": 6134,
      "▁begins": 6135,
      "ices.": 6136,
      "▁2000": 6137,
      "▁W.": 6138,
      "▁helpful": 6139,
      "▁spl": 6140,
      "▁youth": 6141,
      "▁Robert": 6142,
      "▁dogs": 6143,
      "▁neut": 6144,
      "umber": 6145,
      "▁Sl": 6146,
      "▁lose": 6147,
      "▁Que": 6148,
      "▁Mil": 6149,
      "▁pil": 6150,
      "▁proport": 6151,
      "▁Bible": 6152,
      "▁4.": 6153,
      "▁subsequ": 6154,
      "▁medicine": 6155,
      "itness": 6156,
      "going": 6157,
      "▁Service": 6158,
      "▁diagnosis": 6159,
      "▁processing": 6160,
      "▁drinking": 6161,
      "▁tro": 6162,
      "▁valid": 6163,
      "▁comment": 6164,
      "▁band": 6165,
      "▁studied": 6166,
      "▁Jud": 6167,
      "ses": 6168,
      "▁convent": 6169,
      "▁Using": 6170,
      "▁introduction": 6171,
      "▁\"A": 6172,
      "▁substant": 6173,
      "▁potentially": 6174,
      "▁western": 6175,
      "▁Russian": 6176,
      "ooth": 6177,
      "▁detailed": 6178,
      "▁Group": 6179,
      "▁apparent": 6180,
      "▁snow": 6181,
      "igration": 6182,
      "stood": 6183,
      "▁bow": 6184,
      "rem": 6185,
      "ION": 6186,
      "▁Catholic": 6187,
      "▁smart": 6188,
      "▁Flor": 6189,
      "▁harvest": 6190,
      "▁window": 6191,
      "▁(a": 6192,
      "▁chann": 6193,
      "igenous": 6194,
      "▁Budd": 6195,
      "▁issu": 6196,
      "▁case,": 6197,
      "▁interview": 6198,
      "▁Data": 6199,
      "▁completed": 6200,
      "▁increasingly": 6201,
      "▁moist": 6202,
      "▁rural": 6203,
      "S,": 6204,
      "oviet": 6205,
      "▁dial": 6206,
      "▁rough": 6207,
      "rob": 6208,
      "▁infrastruct": 6209,
      "RO": 6210,
      "▁Germany": 6211,
      "▁abuse": 6212,
      "▁Pacific": 6213,
      "oo": 6214,
      "\nIf": 6215,
      "▁supplement": 6216,
      "ipped": 6217,
      "▁Sou": 6218,
      "van": 6219,
      "▁collected": 6220,
      "ville": 6221,
      "▁seg": 6222,
      "ario": 6223,
      "▁ped": 6224,
      "▁sen": 6225,
      "▁disapp": 6226,
      "▁curriculum": 6227,
      "wards": 6228,
      "sk": 6229,
      "nel": 6230,
      "▁gender": 6231,
      "ael": 6232,
      "▁outcom": 6233,
      "▁raised": 6234,
      "▁fif": 6235,
      "ompl": 6236,
      "osen": 6237,
      "▁Gr": 6238,
      "▁suffer": 6239,
      "▁wel": 6240,
      "▁vaccine": 6241,
      "▁Op": 6242,
      "▁elev": 6243,
      "▁frequency": 6244,
      "zing": 6245,
      "▁deliver": 6246,
      "▁wire": 6247,
      "▁played": 6248,
      "▁units": 6249,
      "▁AD": 6250,
      "resents": 6251,
      "▁2017": 6252,
      "icians": 6253,
      "▁district": 6254,
      "▁consists": 6255,
      "▁farmers": 6256,
      "▁“the": 6257,
      "▁divided": 6258,
      "▁cardi": 6259,
      "inding": 6260,
      "▁depends": 6261,
      "ress,": 6262,
      "▁cloth": 6263,
      "well": 6264,
      "▁Kore": 6265,
      "▁containing": 6266,
      "▁pump": 6267,
      "▁homes": 6268,
      "band": 6269,
      "▁Lake": 6270,
      "celer": 6271,
      "▁Energy": 6272,
      "▁however": 6273,
      "100": 6274,
      "▁lik": 6275,
      "▁Learning": 6276,
      "za": 6277,
      "oster": 6278,
      "▁finally": 6279,
      "▁Latin": 6280,
      "name": 6281,
      "▁Treat": 6282,
      "▁operations": 6283,
      "ities,": 6284,
      "▁suggested": 6285,
      "▁therm": 6286,
      "ile,": 6287,
      "▁existence": 6288,
      ".)": 6289,
      "▁Out": 6290,
      "▁advance": 6291,
      "▁Land": 6292,
      "DF": 6293,
      "▁canc": 6294,
      "▁children,": 6295,
      "▁looked": 6296,
      "▁Jose": 6297,
      "▁Mars": 6298,
      "-20": 6299,
      ".\nAnd": 6300,
      "▁mountain": 6301,
      "rolog": 6302,
      "▁relationships": 6303,
      "’m": 6304,
      "over,": 6305,
      "33": 6306,
      "▁slightly": 6307,
      "▁body.": 6308,
      "▁profession": 6309,
      "▁Women": 6310,
      "▁Mont": 6311,
      "atever": 6312,
      "yr": 6313,
      "▁Smith": 6314,
      "▁du": 6315,
      "▁Stand": 6316,
      "▁weap": 6317,
      "▁paint": 6318,
      "gl": 6319,
      "clusion": 6320,
      "▁chapter": 6321,
      "▁strategy": 6322,
      "▁concerns": 6323,
      "▁Psych": 6324,
      "▁pig": 6325,
      "\nU": 6326,
      "▁buildings": 6327,
      "▁param": 6328,
      "▁fle": 6329,
      "▁Year": 6330,
      "aturally": 6331,
      "5)": 6332,
      "urb": 6333,
      "▁extent": 6334,
      "▁Supp": 6335,
      "BN": 6336,
      "an.": 6337,
      "▁appeared": 6338,
      "▁grown": 6339,
      "▁framework": 6340,
      "▁pieces": 6341,
      "▁principle": 6342,
      "▁Texas": 6343,
      "▁Nor": 6344,
      "▁sed": 6345,
      "▁Another": 6346,
      "▁fields": 6347,
      "▁minimum": 6348,
      "▁dut": 6349,
      "?”": 6350,
      "▁latest": 6351,
      "▁tail": 6352,
      "▁visible": 6353,
      "▁km": 6354,
      "umin": 6355,
      "▁chief": 6356,
      "ass,": 6357,
      "▁kn": 6358,
      "all,": 6359,
      "ascular": 6360,
      "stronom": 6361,
      "ated.": 6362,
      "▁stone": 6363,
      "▁Middle": 6364,
      "▁articles": 6365,
      "eline": 6366,
      "-D": 6367,
      "▁mit": 6368,
      "▁(W": 6369,
      "rof": 6370,
      "▁seeds": 6371,
      ".\nSo": 6372,
      "▁reform": 6373,
      "▁rand": 6374,
      "▁pages": 6375,
      "CC": 6376,
      "▁advice": 6377,
      "▁decrease": 6378,
      "isp": 6379,
      "▁accompl": 6380,
      "▁format": 6381,
      "▁188": 6382,
      ".\nHowever,": 6383,
      "▁salt": 6384,
      "▁specifically": 6385,
      "▁samples": 6386,
      "▁diversity": 6387,
      "\nc": 6388,
      "▁concepts": 6389,
      "▁extract": 6390,
      "▁Wind": 6391,
      "▁Life": 6392,
      "▁paid": 6393,
      "▁represents": 6394,
      "▁Carol": 6395,
      "▁contem": 6396,
      "▁rein": 6397,
      "eria": 6398,
      "▁Jews": 6399,
      "▁hundreds": 6400,
      "▁frag": 6401,
      "▁prison": 6402,
      "Ch": 6403,
      "▁pray": 6404,
      "▁Fam": 6405,
      "▁assemb": 6406,
      "▁flat": 6407,
      "that": 6408,
      "u,": 6409,
      "▁Ste": 6410,
      "▁formation": 6411,
      "-P": 6412,
      "ancer": 6413,
      "▁gun": 6414,
      "▁saying": 6415,
      "ancing": 6416,
      "▁satell": 6417,
      "▁Nav": 6418,
      "▁circumst": 6419,
      "▁emergency": 6420,
      "\nIt": 6421,
      "▁spiritual": 6422,
      "ague": 6423,
      ".\n|": 6424,
      "▁properly": 6425,
      "▁floor": 6426,
      "se,": 6427,
      "▁san": 6428,
      "ishes": 6429,
      "oom": 6430,
      "▁moral": 6431,
      "▁random": 6432,
      "▁sche": 6433,
      "▁enhance": 6434,
      "▁mer": 6435,
      "▁Disc": 6436,
      "▁work.": 6437,
      "▁Two": 6438,
      "▁expensive": 6439,
      "▁impacts": 6440,
      "▁cup": 6441,
      "she": 6442,
      "▁Commission": 6443,
      "▁scal": 6444,
      "▁Soviet": 6445,
      "▁Instead": 6446,
      "▁wear": 6447,
      "odes": 6448,
      "▁stret": 6449,
      "▁narr": 6450,
      "ellect": 6451,
      "cest": 6452,
      "▁France": 6453,
      "▁distingu": 6454,
      "▁Ref": 6455,
      "\nThere": 6456,
      "AP": 6457,
      "▁knew": 6458,
      "▁Make": 6459,
      "pat": 6460,
      "▁otherwise": 6461,
      "▁alt": 6462,
      "▁tried": 6463,
      "▁portion": 6464,
      "▁controlled": 6465,
      "▁Engine": 6466,
      "ding": 6467,
      "▁Post": 6468,
      "6)": 6469,
      "ING": 6470,
      "▁recovery": 6471,
      "▁classes": 6472,
      "▁instrument": 6473,
      "▁Information": 6474,
      "▁advoc": 6475,
      "▁Like": 6476,
      "▁shel": 6477,
      "▁pref": 6478,
      "eters": 6479,
      "▁injury": 6480,
      "▁sick": 6481,
      "▁Bay": 6482,
      "▁couple": 6483,
      "▁Mass": 6484,
      "▁push": 6485,
      "▁Emp": 6486,
      ".\nAfter": 6487,
      "west": 6488,
      "▁leaving": 6489,
      "ingly": 6490,
      "olars": 6491,
      "▁adding": 6492,
      "▁discovery": 6493,
      ".\nHe": 6494,
      "man,": 6495,
      "▁depth": 6496,
      "lar": 6497,
      "▁engineering": 6498,
      "▁police": 6499,
      "▁column": 6500,
      "▁obtained": 6501,
      "▁administr": 6502,
      "▁Up": 6503,
      "▁Mem": 6504,
      "▁morning": 6505,
      "ortunately,": 6506,
      "▁ingred": 6507,
      "active": 6508,
      "▁Tem": 6509,
      "▁stimul": 6510,
      "less,": 6511,
      "▁playing": 6512,
      "cel": 6513,
      "▁Such": 6514,
      "tion": 6515,
      "▁electronic": 6516,
      "urd": 6517,
      "▁Del": 6518,
      "oral": 6519,
      "▁remark": 6520,
      "▁voice": 6521,
      "▁monitoring": 6522,
      "38": 6523,
      "▁Scient": 6524,
      "▁returned": 6525,
      "onn": 6526,
      "ago": 6527,
      "▁rub": 6528,
      "▁Histor": 6529,
      "500": 6530,
      "▁flight": 6531,
      "iced": 6532,
      "▁Britain": 6533,
      "▁conscious": 6534,
      "orith": 6535,
      "▁Mo": 6536,
      "▁label": 6537,
      "▁recognized": 6538,
      "▁tested": 6539,
      "arant": 6540,
      "uke": 6541,
      "▁Thus,": 6542,
      "▁medication": 6543,
      "▁corpor": 6544,
      "▁facilit": 6545,
      "\n|": 6546,
      "▁leadership": 6547,
      "▁barri": 6548,
      "▁CD": 6549,
      "▁closely": 6550,
      "ess,": 6551,
      "gal": 6552,
      "ina,": 6553,
      "▁Control": 6554,
      "\n\"": 6555,
      "-to": 6556,
      "chers": 6557,
      "▁games": 6558,
      "▁exchange": 6559,
      "▁poem": 6560,
      "▁Saf": 6561,
      "ins,": 6562,
      "▁selection": 6563,
      "ocratic": 6564,
      "▁valuable": 6565,
      "▁healthcare": 6566,
      "olf": 6567,
      "▁mobile": 6568,
      "▁29": 6569,
      "▁Ox": 6570,
      "▁concentration": 6571,
      "▁well-": 6572,
      "▁efficiency": 6573,
      "▁bag": 6574,
      "▁touch": 6575,
      "abil": 6576,
      "▁sensitive": 6577,
      "▁minim": 6578,
      "▁adequ": 6579,
      "▁phone": 6580,
      "▁narrow": 6581,
      "▁hunt": 6582,
      "stream": 6583,
      "▁raise": 6584,
      "▁station": 6585,
      "rates": 6586,
      "tty": 6587,
      "▁Wild": 6588,
      "ya": 6589,
      "▁wave": 6590,
      "▁ble": 6591,
      "▁prem": 6592,
      "▁lifest": 6593,
      "▁accomp": 6594,
      "0s": 6595,
      "onst": 6596,
      "▁links": 6597,
      "▁flag": 6598,
      "▁restrict": 6599,
      "▁authority": 6600,
      "▁brown": 6601,
      "▁Henry": 6602,
      "▁dental": 6603,
      "▁tun": 6604,
      "▁they’re": 6605,
      "ront": 6606,
      "bour": 6607,
      "▁obtain": 6608,
      "▁Common": 6609,
      "▁transition": 6610,
      "▁protected": 6611,
      "▁unlike": 6612,
      "le.": 6613,
      "olve": 6614,
      "▁Library": 6615,
      "▁disorders": 6616,
      "▁recognize": 6617,
      "▁fertil": 6618,
      "▁anxiety": 6619,
      "▁Nature": 6620,
      "▁<": 6621,
      "▁capable": 6622,
      "▁secondary": 6623,
      "▁Sum": 6624,
      "▁operation": 6625,
      "▁siz": 6626,
      "▁Power": 6627,
      "▁Environmental": 6628,
      "▁impossible": 6629,
      "▁States,": 6630,
      "▁intake": 6631,
      "▁coff": 6632,
      "▁Google": 6633,
      "▁information,": 6634,
      "▁chemicals": 6635,
      "ctic": 6636,
      "ules": 6637,
      "▁possess": 6638,
      "▁nurs": 6639,
      "VID": 6640,
      "▁apart": 6641,
      "▁poet": 6642,
      "▁director": 6643,
      "▁traffic": 6644,
      ".\n3.": 6645,
      "▁Army": 6646,
      "▁naturally": 6647,
      "▁infections": 6648,
      "▁decades": 6649,
      "▁explains": 6650,
      "ives,": 6651,
      "▁tips": 6652,
      "▁Press": 6653,
      "asp": 6654,
      "▁(J": 6655,
      "▁incl": 6656,
      "▁dedic": 6657,
      "▁35": 6658,
      "break": 6659,
      "▁library": 6660,
      "iative": 6661,
      "▁diverse": 6662,
      "▁interf": 6663,
      "▁suitable": 6664,
      "▁survival": 6665,
      "▁absolute": 6666,
      "▁antibiot": 6667,
      "liam": 6668,
      "▁gall": 6669,
      "▁Charles": 6670,
      "▁mos": 6671,
      "itt": 6672,
      "-se": 6673,
      "pec": 6674,
      "▁millions": 6675,
      "▁Management": 6676,
      "ester": 6677,
      "burg": 6678,
      "▁discrim": 6679,
      "attle": 6680,
      "▁afford": 6681,
      "ibilities": 6682,
      "BC": 6683,
      "ensus": 6684,
      "▁selected": 6685,
      "▁corn": 6686,
      "▁error": 6687,
      "inet": 6688,
      "▁insul": 6689,
      "-old": 6690,
      "▁Div": 6691,
      "olester": 6692,
      "If": 6693,
      "▁recip": 6694,
      "▁describes": 6695,
      "-sh": 6696,
      "▁prepare": 6697,
      "▁fal": 6698,
      "▁inject": 6699,
      "osph": 6700,
      "▁you,": 6701,
      "ado": 6702,
      "▁3,": 6703,
      "▁amb": 6704,
      "abric": 6705,
      ";\n-": 6706,
      "ait": 6707,
      "▁investment": 6708,
      "▁disease.": 6709,
      "▁understood": 6710,
      "TS": 6711,
      "▁producing": 6712,
      "asure": 6713,
      "▁chain": 6714,
      "▁history,": 6715,
      "▁discipl": 6716,
      "▁surgery": 6717,
      "ources": 6718,
      "▁worldwide": 6719,
      "36": 6720,
      "g.,": 6721,
      "▁10.": 6722,
      "▁G.": 6723,
      "▁1:": 6724,
      "▁candid": 6725,
      "ocra": 6726,
      "▁decline": 6727,
      "-9": 6728,
      "▁sudd": 6729,
      "omach": 6730,
      "▁Alex": 6731,
      "▁waters": 6732,
      "AD": 6733,
      "▁preserv": 6734,
      "▁download": 6735,
      "▁Bet": 6736,
      "-sc": 6737,
      "alysis": 6738,
      "▁THE": 6739,
      "▁aircraft": 6740,
      "▁circuit": 6741,
      "CE": 6742,
      "▁aw": 6743,
      "▁originally": 6744,
      "▁nan": 6745,
      "itors": 6746,
      "▁internet": 6747,
      "▁index": 6748,
      "▁dream": 6749,
      "▁medium": 6750,
      "▁toler": 6751,
      "\nAs": 6752,
      "▁thin": 6753,
      "illing": 6754,
      "▁possibility": 6755,
      "▁consequences": 6756,
      "▁mamm": 6757,
      "▁Bro": 6758,
      "m,": 6759,
      "▁regional": 6760,
      "akers": 6761,
      "agram": 6762,
      "▁precise": 6763,
      "ide,": 6764,
      "▁microb": 6765,
      "▁normally": 6766,
      "▁About": 6767,
      "ropical": 6768,
      "▁treatments": 6769,
      "▁So,": 6770,
      "exp": 6771,
      "▁explained": 6772,
      "▁horse": 6773,
      "▁AI": 6774,
      "▁stored": 6775,
      "▁massive": 6776,
      "olesterol": 6777,
      "▁(n": 6778,
      "zy": 6779,
      "▁particles": 6780,
      "ill,": 6781,
      "▁generate": 6782,
      "a-": 6783,
      "▁sin": 6784,
      "▁gather": 6785,
      "▁myth": 6786,
      "ye": 6787,
      "iled": 6788,
      "▁harmful": 6789,
      "▁you.": 6790,
      "ato": 6791,
      "mic": 6792,
      "▁leaf": 6793,
      "▁budget": 6794,
      "▁suc": 6795,
      "merican": 6796,
      "rapy": 6797,
      "▁formal": 6798,
      "▁Federal": 6799,
      "▁imper": 6800,
      "hemical": 6801,
      "▁pure": 6802,
      "anges": 6803,
      "▁army": 6804,
      "▁possibly": 6805,
      "▁Know": 6806,
      "▁solve": 6807,
      "▁It's": 6808,
      "ams": 6809,
      "▁abund": 6810,
      "▁improving": 6811,
      "▁beneficial": 6812,
      "▁composition": 6813,
      "▁dust": 6814,
      "▁IN": 6815,
      "▁suffering": 6816,
      "\nWhat": 6817,
      "aph": 6818,
      "▁career": 6819,
      "fall": 6820,
      "▁fossil": 6821,
      "▁implic": 6822,
      "organ": 6823,
      "▁carb": 6824,
      "▁peak": 6825,
      "▁topics": 6826,
      "▁facts": 6827,
      "\nJ": 6828,
      "▁tow": 6829,
      "▁talking": 6830,
      "▁(t": 6831,
      "\nof": 6832,
      "▁leader": 6833,
      "comp": 6834,
      "▁revealed": 6835,
      "-to-": 6836,
      "▁Att": 6837,
      "▁Addition": 6838,
      "▁aqu": 6839,
      "\nd": 6840,
      "eper": 6841,
      "eren": 6842,
      "▁experienc": 6843,
      "ih": 6844,
      "▁Word": 6845,
      "▁quot": 6846,
      "▁universe": 6847,
      "▁adequate": 6848,
      "▁apprec": 6849,
      "▁ISBN": 6850,
      "▁Id": 6851,
      "omy": 6852,
      "▁ancest": 6853,
      "▁2006": 6854,
      "▁Care": 6855,
      "▁Canadian": 6856,
      "▁infected": 6857,
      "▁volt": 6858,
      "▁mainten": 6859,
      "▁Bur": 6860,
      "ard,": 6861,
      "▁world’s": 6862,
      "▁Good": 6863,
      "▁institutions": 6864,
      "▁religion": 6865,
      "\nAn": 6866,
      "▁sector": 6867,
      "▁Pers": 6868,
      "▁Constitution": 6869,
      "▁gam": 6870,
      "▁accident": 6871,
      "▁Review": 6872,
      "throp": 6873,
      "▁185": 6874,
      "▁museum": 6875,
      "▁cultiv": 6876,
      "▁equival": 6877,
      "▁ax": 6878,
      "▁catch": 6879,
      "um,": 6880,
      "▁ban": 6881,
      "▁surf": 6882,
      "▁Also,": 6883,
      "▁unless": 6884,
      "▁persons": 6885,
      "ari": 6886,
      "▁secure": 6887,
      "iform": 6888,
      "aker": 6889,
      "\ns": 6890,
      "▁PC": 6891,
      "▁switch": 6892,
      "▁Ann": 6893,
      "▁chart": 6894,
      "▁glob": 6895,
      "▁letters": 6896,
      "allel": 6897,
      "▁mac": 6898,
      "▁Mr.": 6899,
      "▁aer": 6900,
      "▁grav": 6901,
      "▁discussed": 6902,
      "anguage": 6903,
      "▁Expl": 6904,
      "part": 6905,
      "orrow": 6906,
      "▁girls": 6907,
      "▁concerned": 6908,
      "▁sudden": 6909,
      "▁tells": 6910,
      "▁creative": 6911,
      "▁Columb": 6912,
      "cknow": 6913,
      "▁depos": 6914,
      "OU": 6915,
      "▁engage": 6916,
      "7)": 6917,
      "▁childhood": 6918,
      "more,": 6919,
      "▁edge": 6920,
      "▁pup": 6921,
      "▁pretty": 6922,
      "▁algorith": 6923,
      "▁comprehensive": 6924,
      "▁driving": 6925,
      "▁nutrients": 6926,
      "▁Australian": 6927,
      "48": 6928,
      "erent": 6929,
      "▁2018": 6930,
      "mas": 6931,
      "▁entirely": 6932,
      "▁sounds": 6933,
      "▁drain": 6934,
      "▁eggs": 6935,
      "▁photograph": 6936,
      "▁listed": 6937,
      "asive": 6938,
      "▁phr": 6939,
      "orter": 6940,
      "▁Through": 6941,
      "▁Frank": 6942,
      "▁thousand": 6943,
      "▁Commit": 6944,
      "▁creates": 6945,
      "▁Technology": 6946,
      "▁Report": 6947,
      "▁optim": 6948,
      "▁sell": 6949,
      "▁acceler": 6950,
      "▁Prov": 6951,
      "▁contamin": 6952,
      "▁motion": 6953,
      "ow,": 6954,
      "▁gal": 6955,
      "▁Labor": 6956,
      "itage": 6957,
      "▁(O": 6958,
      "▁“S": 6959,
      "▁remaining": 6960,
      "▁Leg": 6961,
      "▁out,": 6962,
      "idden": 6963,
      "▁subjects": 6964,
      "▁you’ll": 6965,
      "▁bio": 6966,
      "-be": 6967,
      "irus": 6968,
      "▁ratio": 6969,
      ".\nY": 6970,
      "pping": 6971,
      "▁Mill": 6972,
      "▁marine": 6973,
      "▁Any": 6974,
      "’,": 6975,
      "inction": 6976,
      "▁claims": 6977,
      "rations": 6978,
      "▁OF": 6979,
      "▁pull": 6980,
      "▁boost": 6981,
      "cess,": 6982,
      "▁rapidly": 6983,
      "▁repeated": 6984,
      ".\nAccording": 6985,
      "▁officials": 6986,
      "rid": 6987,
      "▁happened": 6988,
      "▁tank": 6989,
      "▁process.": 6990,
      "▁reject": 6991,
      "▁shell": 6992,
      "▁molecul": 6993,
      "▁perce": 6994,
      "▁sets": 6995,
      "▁enable": 6996,
      "▁procedures": 6997,
      "▁Those": 6998,
      "normal": 6999,
      "▁intellect": 7000,
      "▁others.": 7001,
      "▁mechanism": 7002,
      ".\nBy": 7003,
      "▁af": 7004,
      "▁title": 7005,
      "▁inches": 7006,
      "▁bear": 7007,
      "▁sweet": 7008,
      "▁you're": 7009,
      "eer": 7010,
      "orough": 7011,
      "under": 7012,
      "▁Lab": 7013,
      "reed": 7014,
      "▁500": 7015,
      "-cent": 7016,
      "-of": 7017,
      "▁children.": 7018,
      "▁there’s": 7019,
      "▁stated": 7020,
      "▁Professor": 7021,
      "▁Joseph": 7022,
      "aud": 7023,
      "▁periods": 7024,
      "▁muscles": 7025,
      "heim": 7026,
      "▁Dan": 7027,
      "▁traum": 7028,
      "yth": 7029,
      "▁adopted": 7030,
      "▁identity": 7031,
      "▁characters": 7032,
      "▁jobs": 7033,
      "point": 7034,
      "▁wife": 7035,
      "-7": 7036,
      "▁calls": 7037,
      "▁remote": 7038,
      "▁child’s": 7039,
      "▁approaches": 7040,
      "▁Wil": 7041,
      "▁News": 7042,
      "▁steel": 7043,
      "illed": 7044,
      "▁critic": 7045,
      "▁obes": 7046,
      "▁sod": 7047,
      "▁audience": 7048,
      "▁Add": 7049,
      "▁Fe": 7050,
      "▁pair": 7051,
      "ines.": 7052,
      "▁Global": 7053,
      "39": 7054,
      "▁residents": 7055,
      "otyp": 7056,
      "▁languages": 7057,
      "▁Vict": 7058,
      "▁funding": 7059,
      "▁laun": 7060,
      "▁desire": 7061,
      "▁Ill": 7062,
      "CT": 7063,
      "opy": 7064,
      "▁Rad": 7065,
      "▁flav": 7066,
      "▁deaths": 7067,
      "▁goods": 7068,
      "cher": 7069,
      "▁filled": 7070,
      "▁187": 7071,
      "▁attend": 7072,
      "▁attacks": 7073,
      "▁mineral": 7074,
      "▁co-": 7075,
      "▁Design": 7076,
      "luding": 7077,
      "ivery": 7078,
      "▁stomach": 7079,
      "▁Gold": 7080,
      "▁Louis": 7081,
      "▁plays": 7082,
      "▁body,": 7083,
      "▁latter": 7084,
      "▁Southern": 7085,
      "▁tasks": 7086,
      "▁shop": 7087,
      "▁views": 7088,
      "▁expressed": 7089,
      "ey": 7090,
      "▁starts": 7091,
      "▁justice": 7092,
      "▁sight": 7093,
      "▁outl": 7094,
      "▁expans": 7095,
      "▁respir": 7096,
      "▁extended": 7097,
      "▁derived": 7098,
      ".\n“The": 7099,
      "▁Cam": 7100,
      "▁consistent": 7101,
      "▁truly": 7102,
      "▁T.": 7103,
      "▁•": 7104,
      "▁Tor": 7105,
      "▁produces": 7106,
      "▁database": 7107,
      "edu": 7108,
      "▁twice": 7109,
      "▁shift": 7110,
      "CS": 7111,
      "ky": 7112,
      "’d": 7113,
      "itative": 7114,
      "z,": 7115,
      "▁Long": 7116,
      "osh": 7117,
      "MS": 7118,
      "▁neck": 7119,
      "it,": 7120,
      "osal": 7121,
      "▁server": 7122,
      "▁simpl": 7123,
      "▁flowers": 7124,
      "uilding": 7125,
      "a’s": 7126,
      "▁unp": 7127,
      "▁protocol": 7128,
      "▁decide": 7129,
      "▁manufacturing": 7130,
      "▁300": 7131,
      "▁Ess": 7132,
      "avery": 7133,
      "▁opened": 7134,
      "▁result,": 7135,
      "abul": 7136,
      "▁wish": 7137,
      "uted": 7138,
      "▁Haw": 7139,
      "▁Bank": 7140,
      "▁chick": 7141,
      "IL": 7142,
      "▁>": 7143,
      "▁Pub": 7144,
      "▁substance": 7145,
      "▁fasc": 7146,
      "▁3D": 7147,
      "anged": 7148,
      "▁2005": 7149,
      "▁listen": 7150,
      "-time": 7151,
      "▁accepted": 7152,
      "abb": 7153,
      "s.\"": 7154,
      "er's": 7155,
      "▁princip": 7156,
      "ones,": 7157,
      "▁doi:": 7158,
      "▁Step": 7159,
      "▁intelligence": 7160,
      "▁19th": 7161,
      "ages.": 7162,
      "▁generated": 7163,
      "▁Rights": 7164,
      "▁laboratory": 7165,
      "▁seeing": 7166,
      "▁resident": 7167,
      "▁Rome": 7168,
      "rd": 7169,
      ".\n•": 7170,
      "▁opening": 7171,
      "▁inhib": 7172,
      "▁moon": 7173,
      "▁Only": 7174,
      "▁hus": 7175,
      "▁lifestyle": 7176,
      "▁description": 7177,
      "arn": 7178,
      "▁governments": 7179,
      "▁health,": 7180,
      "▁transmission": 7181,
      "▁“s": 7182,
      "▁raw": 7183,
      "▁cart": 7184,
      "▁then,": 7185,
      "▁election": 7186,
      "▁proteins": 7187,
      "▁conventional": 7188,
      "▁Jack": 7189,
      "▁Chic": 7190,
      "▁gluc": 7191,
      "istan": 7192,
      "▁acts": 7193,
      "▁lots": 7194,
      "99": 7195,
      "▁constitution": 7196,
      "▁prol": 7197,
      "▁acknow": 7198,
      "▁newsp": 7199,
      "oto": 7200,
      "▁rid": 7201,
      "▁opposite": 7202,
      "zil": 7203,
      "▁marked": 7204,
      "▁Get": 7205,
      "-n": 7206,
      "▁colleag": 7207,
      "▁overl": 7208,
      "▁Exper": 7209,
      "▁permanent": 7210,
      "aser": 7211,
      "▁studying": 7212,
      "▁F.": 7213,
      "▁remind": 7214,
      "▁figures": 7215,
      "▁accum": 7216,
      "▁Kh": 7217,
      "▁employees": 7218,
      "opl": 7219,
      "▁regularly": 7220,
      "▁sequence": 7221,
      "▁preval": 7222,
      "TM": 7223,
      "am,": 7224,
      "▁conserv": 7225,
      "▁biggest": 7226,
      "▁wants": 7227,
      "liament": 7228,
      "▁voc": 7229,
      "▁indicates": 7230,
      "▁roots": 7231,
      "zen": 7232,
      "▁university": 7233,
      "iology": 7234,
      "▁Lib": 7235,
      "▁lessons": 7236,
      "▁Natural": 7237,
      "▁witness": 7238,
      "apping": 7239,
      "▁hero": 7240,
      "▁tiny": 7241,
      "▁diox": 7242,
      "▁mild": 7243,
      "▁flo": 7244,
      "▁later,": 7245,
      "enses": 7246,
      "▁prices": 7247,
      "imm": 7248,
      "ology.": 7249,
      "▁www": 7250,
      "▁Office": 7251,
      "▁follows": 7252,
      "▁pictures": 7253,
      "How": 7254,
      ").\nThe": 7255,
      "▁themselv": 7256,
      "▁cholesterol": 7257,
      "▁COVID": 7258,
      "▁unable": 7259,
      "▁researcher": 7260,
      "▁characteristic": 7261,
      "▁nations": 7262,
      "▁dedicated": 7263,
      "▁brand": 7264,
      "▁(3": 7265,
      "-the": 7266,
      "▁45": 7267,
      "▁supporting": 7268,
      "▁Je": 7269,
      "ymph": 7270,
      "▁pron": 7271,
      "▁so,": 7272,
      "▁magnetic": 7273,
      "▁teen": 7274,
      "▁dent": 7275,
      "▁kit": 7276,
      "▁Mad": 7277,
      "-T": 7278,
      "ases,": 7279,
      "CO": 7280,
      "▁wildlife": 7281,
      "▁broken": 7282,
      "▁feelings": 7283,
      "▁Camp": 7284,
      "HO": 7285,
      "lers": 7286,
      "▁Cult": 7287,
      "▁surve": 7288,
      "▁alle": 7289,
      "den": 7290,
      "omic": 7291,
      "▁Disease": 7292,
      "▁achieved": 7293,
      "ments.": 7294,
      "▁nerve": 7295,
      "▁Ext": 7296,
      "down": 7297,
      "▁successfully": 7298,
      "rav": 7299,
      "▁Form": 7300,
      "▁process,": 7301,
      "ml": 7302,
      "65": 7303,
      "▁fabric": 7304,
      "▁Bre": 7305,
      "then": 7306,
      "▁files": 7307,
      "▁Clin": 7308,
      "▁Exp": 7309,
      "▁Revolution": 7310,
      "as.": 7311,
      "▁ago,": 7312,
      "athy": 7313,
      "▁greatly": 7314,
      "▁IP": 7315,
      "flow": 7316,
      "▁ethnic": 7317,
      "▁cutting": 7318,
      "▁unus": 7319,
      "▁intervention": 7320,
      "▁data,": 7321,
      "▁craft": 7322,
      "▁mixed": 7323,
      "▁Det": 7324,
      "▁PM": 7325,
      "▁roof": 7326,
      "▁inner": 7327,
      "▁Vis": 7328,
      "▁Studies": 7329,
      "▁persist": 7330,
      "▁Ire": 7331,
      "▁now,": 7332,
      "▁www.": 7333,
      "▁gap": 7334,
      "-H": 7335,
      "▁fewer": 7336,
      "▁underlying": 7337,
      "▁summ": 7338,
      "▁thoughts": 7339,
      "▁frequent": 7340,
      "bur": 7341,
      "▁doesn't": 7342,
      "▁sides": 7343,
      "▁sport": 7344,
      "imens": 7345,
      "▁Mexico": 7346,
      "44": 7347,
      "▁soldiers": 7348,
      "bridge": 7349,
      "▁obst": 7350,
      "▁necessarily": 7351,
      "▁Home": 7352,
      "▁vegetables": 7353,
      "▁Northern": 7354,
      "occ": 7355,
      "▁join": 7356,
      "▁interests": 7357,
      "▁chrom": 7358,
      "hav": 7359,
      "▁Scot": 7360,
      "▁nine": 7361,
      "▁prevention": 7362,
      "].": 7363,
      "ctive": 7364,
      "roduction": 7365,
      "▁competition": 7366,
      "▁clust": 7367,
      "ho": 7368,
      "▁hydrogen": 7369,
      "▁Ter": 7370,
      "▁closed": 7371,
      "▁oursel": 7372,
      "▁recognition": 7373,
      "ded": 7374,
      "ifies": 7375,
      "▁represented": 7376,
      "▁routine": 7377,
      "▁spr": 7378,
      "▁Administ": 7379,
      "▁struggle": 7380,
      "earchers": 7381,
      "▁regist": 7382,
      "▁managed": 7383,
      ".\nEx": 7384,
      "▁shot": 7385,
      "▁psychological": 7386,
      "▁filter": 7387,
      "▁relax": 7388,
      "▁resolution": 7389,
      "agon": 7390,
      "▁compound": 7391,
      "▁unknown": 7392,
      "▁epid": 7393,
      "▁stars": 7394,
      "▁scholars": 7395,
      "▁Peter": 7396,
      "stract": 7397,
      "▁artificial": 7398,
      "-R": 7399,
      "kin": 7400,
      "heast": 7401,
      "▁soul": 7402,
      "▁feedback": 7403,
      "uzz": 7404,
      "fish": 7405,
      "-re": 7406,
      ".\n1": 7407,
      "ribed": 7408,
      "▁area.": 7409,
      "▁him,": 7410,
      "▁interaction": 7411,
      "agers": 7412,
      "▁breath": 7413,
      "▁situations": 7414,
      "▁recept": 7415,
      "▁confidence": 7416,
      "▁fever": 7417,
      ".com/": 7418,
      "▁amaz": 7419,
      "▁eld": 7420,
      "▁appearance": 7421,
      "▁fixed": 7422,
      "ier,": 7423,
      "▁eastern": 7424,
      "king": 7425,
      "▁cos": 7426,
      "▁attached": 7427,
      "uous": 7428,
      "irt": 7429,
      "▁Empire": 7430,
      ").\n-": 7431,
      "▁partner": 7432,
      "▁Sing": 7433,
      "▁Asia": 7434,
      "▁Est": 7435,
      "▁fly": 7436,
      "inations": 7437,
      "prise": 7438,
      "▁electron": 7439,
      "▁fruits": 7440,
      "▁End": 7441,
      "▁veter": 7442,
      "▁territory": 7443,
      "ifest": 7444,
      "▁shut": 7445,
      "ny": 7446,
      "verty": 7447,
      "▁crisis": 7448,
      "▁Rob": 7449,
      "▁membr": 7450,
      "rovers": 7451,
      "\n•": 7452,
      "▁plate": 7453,
      "▁bread": 7454,
      "▁cav": 7455,
      "hether": 7456,
      "▁thy": 7457,
      "▁replaced": 7458,
      "▁closer": 7459,
      "▁crops": 7460,
      "▁launch": 7461,
      "atal": 7462,
      "\nSt": 7463,
      "▁poverty": 7464,
      "▁decad": 7465,
      "▁\"S": 7466,
      "▁hypothes": 7467,
      "C)": 7468,
      "▁ment": 7469,
      "▁Cap": 7470,
      "▁delay": 7471,
      "▁horiz": 7472,
      "▁food,": 7473,
      "▁Sea": 7474,
      "▁foundation": 7475,
      "ley,": 7476,
      "-day": 7477,
      "▁parallel": 7478,
      "▁Prim": 7479,
      "icide": 7480,
      "▁nutrient": 7481,
      "▁Mag": 7482,
      "elled": 7483,
      "utch": 7484,
      "itan": 7485,
      "▁doctors": 7486,
      "inos": 7487,
      "▁twenty": 7488,
      "▁I’m": 7489,
      "▁gum": 7490,
      "▁drawing": 7491,
      "▁Wood": 7492,
      "LE": 7493,
      "▁pool": 7494,
      "▁prev": 7495,
      "▁Gal": 7496,
      "▁stages": 7497,
      "▁prompt": 7498,
      "▁sentence": 7499,
      "\nin": 7500,
      "37": 7501,
      "isk": 7502,
      "▁whereas": 7503,
      "▁5.": 7504,
      "▁ahead": 7505,
      "▁Richard": 7506,
      "▁education,": 7507,
      "ness.": 7508,
      "▁virtual": 7509,
      "▁4,": 7510,
      "▁nest": 7511,
      "▁ath": 7512,
      "ogue": 7513,
      "acing": 7514,
      "▁worse": 7515,
      "▁street": 7516,
      "▁subs": 7517,
      "▁won’t": 7518,
      "▁purchase": 7519,
      "▁Ma": 7520,
      "▁Fact": 7521,
      "▁ultimately": 7522,
      "▁guidelines": 7523,
      "▁equivalent": 7524,
      "▁resulted": 7525,
      "▁row": 7526,
      "▁organized": 7527,
      "▁N.": 7528,
      "▁whatever": 7529,
      "▁battery": 7530,
      "▁sheet": 7531,
      "▁Royal": 7532,
      "▁pra": 7533,
      "uing": 7534,
      "▁door": 7535,
      "▁Penn": 7536,
      "▁Georg": 7537,
      "▁age,": 7538,
      "▁up,": 7539,
      "weight": 7540,
      "▁businesses": 7541,
      ".\nAlthough": 7542,
      "eed,": 7543,
      "▁department": 7544,
      "inking": 7545,
      "▁difficulty": 7546,
      "▁Sol": 7547,
      "▁daughter": 7548,
      "ous.": 7549,
      "▁ages": 7550,
      "▁meth": 7551,
      "▁guarant": 7552,
      "▁danger": 7553,
      "▁EU": 7554,
      "▁say,": 7555,
      "\nf": 7556,
      "win": 7557,
      "▁variet": 7558,
      "▁photos": 7559,
      "▁greenhouse": 7560,
      "riz": 7561,
      "▁research,": 7562,
      "hist": 7563,
      "▁Eth": 7564,
      "▁Pract": 7565,
      "▁willing": 7566,
      "▁wound": 7567,
      "ocks": 7568,
      "▁refuge": 7569,
      "iological": 7570,
      "rat": 7571,
      "DP": 7572,
      "▁medications": 7573,
      "▁careful": 7574,
      "▁outcomes": 7575,
      "▁others,": 7576,
      "▁century.": 7577,
      "▁prove": 7578,
      "▁younger": 7579,
      "▁supports": 7580,
      "onym": 7581,
      "▁founded": 7582,
      "▁..": 7583,
      "▁percentage": 7584,
      "▁authorities": 7585,
      "cience": 7586,
      "▁navig": 7587,
      "▁health.": 7588,
      "ability,": 7589,
      "▁stroke": 7590,
      "▁Color": 7591,
      "▁Free": 7592,
      "uh": 7593,
      "▁Agricult": 7594,
      "▁contained": 7595,
      "ugh": 7596,
      "ans,": 7597,
      "▁way.": 7598,
      "bra": 7599,
      "▁infrastructure": 7600,
      "how": 7601,
      "▁grew": 7602,
      "▁Scott": 7603,
      ".\nHere": 7604,
      "▁kidney": 7605,
      "▁award": 7606,
      "▁bot": 7607,
      "ian,": 7608,
      "▁false": 7609,
      "▁Brown": 7610,
      "gent": 7611,
      "▁delivery": 7612,
      "▁walls": 7613,
      "▁centre": 7614,
      "▁AS": 7615,
      "▁Ocean": 7616,
      "ria": 7617,
      "espread": 7618,
      "▁village": 7619,
      "uter": 7620,
      "ribe": 7621,
      "/s": 7622,
      "▁repair": 7623,
      "roscop": 7624,
      "▁handle": 7625,
      "▁movements": 7626,
      "hered": 7627,
      "▁smooth": 7628,
      "▁tract": 7629,
      "▁los": 7630,
      "▁agreement": 7631,
      "▁Medicine": 7632,
      ".\nThey": 7633,
      "ether": 7634,
      "▁failed": 7635,
      "▁chosen": 7636,
      "ipping": 7637,
      "▁examine": 7638,
      "▁journey": 7639,
      "wo": 7640,
      "▁Foundation": 7641,
      "EP": 7642,
      "▁joined": 7643,
      "irty": 7644,
      "-10": 7645,
      "▁smoke": 7646,
      "When": 7647,
      "ava": 7648,
      "▁Where": 7649,
      "▁Keep": 7650,
      "▁warning": 7651,
      "▁“c": 7652,
      "▁documents": 7653,
      "▁answers": 7654,
      "49": 7655,
      "▁Gard": 7656,
      "▁strain": 7657,
      "▁fash": 7658,
      ".\nAnother": 7659,
      "▁(which": 7660,
      "▁Learn": 7661,
      "-G": 7662,
      "rus": 7663,
      "▁poison": 7664,
      "▁demonstrate": 7665,
      "▁explo": 7666,
      "▁191": 7667,
      "▁Have": 7668,
      "oose": 7669,
      "▁defe": 7670,
      ":\nThe": 7671,
      "▁maintaining": 7672,
      "▁ru": 7673,
      "▁fract": 7674,
      "urt": 7675,
      "▁“B": 7676,
      "▁stands": 7677,
      "ress.": 7678,
      "▁lect": 7679,
      "rial": 7680,
      "erior": 7681,
      "ails": 7682,
      "▁match": 7683,
      "▁Diff": 7684,
      "▁Climate": 7685,
      "▁demonstrated": 7686,
      "▁hem": 7687,
      "acu": 7688,
      "▁20th": 7689,
      "aped": 7690,
      "▁area,": 7691,
      "▁outbreak": 7692,
      "▁Early": 7693,
      "pet": 7694,
      "46": 7695,
      "▁disaster": 7696,
      "aria": 7697,
      "▁supposed": 7698,
      "▁Native": 7699,
      "▁err": 7700,
      "▁relation": 7701,
      "▁rank": 7702,
      "▁environment.": 7703,
      "lements": 7704,
      "oned": 7705,
      "▁administration": 7706,
      "▁carefully": 7707,
      "▁Pan": 7708,
      "▁readers": 7709,
      "▁turns": 7710,
      "▁launched": 7711,
      "-and": 7712,
      "▁mand": 7713,
      "▁inflammation": 7714,
      "plant": 7715,
      "▁communicate": 7716,
      "▁sharing": 7717,
      "▁Ham": 7718,
      "▁aren’t": 7719,
      "\nWhen": 7720,
      "▁arrange": 7721,
      "-free": 7722,
      "▁comparison": 7723,
      "▁depict": 7724,
      "ureau": 7725,
      "▁lies": 7726,
      "erals": 7727,
      "▁functional": 7728,
      "▁happy": 7729,
      "▁maintenance": 7730,
      "▁gone": 7731,
      "▁parties": 7732,
      ".org": 7733,
      "________": 7734,
      "▁we’re": 7735,
      "▁opinion": 7736,
      "-L": 7737,
      "eenth": 7738,
      "▁alter": 7739,
      "k,": 7740,
      "bing": 7741,
      "\nm": 7742,
      "▁hole": 7743,
      ".\n4.": 7744,
      "▁concrete": 7745,
      "▁accounts": 7746,
      "▁painting": 7747,
      "▁integr": 7748,
      "▁putting": 7749,
      "▁trained": 7750,
      "A)": 7751,
      "gra": 7752,
      "-on": 7753,
      "ass.": 7754,
      "▁everyday": 7755,
      "▁workshe": 7756,
      "▁purposes": 7757,
      "▁spok": 7758,
      "▁experiments": 7759,
      "▁sole": 7760,
      ".\nAll": 7761,
      "▁here.": 7762,
      "▁neur": 7763,
      "▁undert": 7764,
      "hes,": 7765,
      "teen": 7766,
      "▁Oh": 7767,
      "▁bridge": 7768,
      "▁Mos": 7769,
      "▁Nations": 7770,
      "▁noise": 7771,
      "▁Michael": 7772,
      "▁oblig": 7773,
      "▁Brazil": 7774,
      "▁doubt": 7775,
      "everal": 7776,
      "phone": 7777,
      "▁(i.e.": 7778,
      "-cont": 7779,
      "▁fighting": 7780,
      "▁involving": 7781,
      "▁sports": 7782,
      "▁warming": 7783,
      "▁immigr": 7784,
      "▁enab": 7785,
      "▁says.": 7786,
      "88": 7787,
      "▁Study": 7788,
      "▁define": 7789,
      "ce,": 7790,
      "ourage": 7791,
      "▁one,": 7792,
      "hi": 7793,
      "ors.": 7794,
      "▁compare": 7795,
      "▁Fort": 7796,
      "▁survive": 7797,
      "aneous": 7798,
      "▁cryst": 7799,
      "▁colors": 7800,
      "▁occasion": 7801,
      "▁fold": 7802,
      "ushed": 7803,
      "▁(e.g.,": 7804,
      "▁times,": 7805,
      "ighter": 7806,
      "▁vulnerable": 7807,
      "ictionary": 7808,
      "47": 7809,
      "ittle": 7810,
      "▁astronom": 7811,
      "acher": 7812,
      "▁standing": 7813,
      "gu": 7814,
      "een": 7815,
      "▁anti": 7816,
      "▁rising": 7817,
      "▁reliable": 7818,
      "▁programm": 7819,
      "▁script": 7820,
      "▁syndrome": 7821,
      "war": 7822,
      "▁Cancer": 7823,
      "▁entry": 7824,
      "▁reven": 7825,
      "urrent": 7826,
      "▁2:": 7827,
      "hyth": 7828,
      "▁fer": 7829,
      "▁assistance": 7830,
      "▁systems,": 7831,
      "▁Eastern": 7832,
      "▁2004": 7833,
      "▁him.": 7834,
      "os,": 7835,
      "32": 7836,
      "usiness": 7837,
      "▁COVID-19": 7838,
      "▁widespread": 7839,
      "thrit": 7840,
      "▁shad": 7841,
      "▁slowly": 7842,
      "orous": 7843,
      "▁participate": 7844,
      "▁feeding": 7845,
      "▁III": 7846,
      "▁boy": 7847,
      "▁Network": 7848,
      "▁professionals": 7849,
      "▁i.e.": 7850,
      "▁implementation": 7851,
      "allow": 7852,
      "▁thorough": 7853,
      "▁rig": 7854,
      "▁issued": 7855,
      "s\n-": 7856,
      "▁fell": 7857,
      "▁landscape": 7858,
      "▁batter": 7859,
      "▁accessible": 7860,
      "ena": 7861,
      "▁married": 7862,
      "▁perspective": 7863,
      "▁trip": 7864,
      "▁holding": 7865,
      "▁diagnosed": 7866,
      "▁forget": 7867,
      "▁country.": 7868,
      "▁capture": 7869,
      "▁migr": 7870,
      "▁arrived": 7871,
      "▁Pet": 7872,
      "▁align": 7873,
      "▁K.": 7874,
      "▁succeed": 7875,
      "▁Holy": 7876,
      "time": 7877,
      "▁Dig": 7878,
      "▁score": 7879,
      "▁drawn": 7880,
      "▁electro": 7881,
      "▁150": 7882,
      "▁pregnancy": 7883,
      "▁Age": 7884,
      "icon": 7885,
      "▁troops": 7886,
      "▁glucose": 7887,
      "▁density": 7888,
      "-year-old": 7889,
      "▁offering": 7890,
      "▁respective": 7891,
      "9)": 7892,
      "▁ske": 7893,
      "▁signals": 7894,
      "▁tight": 7895,
      "▁relief": 7896,
      "itamin": 7897,
      "▁responses": 7898,
      "▁sampl": 7899,
      "orph": 7900,
      "▁crow": 7901,
      "▁blow": 7902,
      "▁calcium": 7903,
      "ances,": 7904,
      "\nWe": 7905,
      "▁reduces": 7906,
      "▁Cre": 7907,
      "▁Pop": 7908,
      "▁No.": 7909,
      "▁estimate": 7910,
      "\np": 7911,
      "tic": 7912,
      "▁knows": 7913,
      "▁definite": 7914,
      "▁Victor": 7915,
      "▁States.": 7916,
      "▁out.": 7917,
      "▁mechanical": 7918,
      "’.": 7919,
      "▁Press,": 7920,
      "quit": 7921,
      "gov": 7922,
      "▁fulf": 7923,
      "\nFor": 7924,
      "▁intellectual": 7925,
      "▁Nut": 7926,
      "▁biod": 7927,
      "▁holid": 7928,
      "▁Wik": 7929,
      "▁announced": 7930,
      "▁Irish": 7931,
      "▁sacr": 7932,
      "▁declared": 7933,
      "▁Kingdom": 7934,
      "▁molecules": 7935,
      "▁husband": 7936,
      "▁division": 7937,
      ".\nMany": 7938,
      "▁Russia": 7939,
      "▁neither": 7940,
      "▁Creat": 7941,
      "▁Street": 7942,
      "▁brings": 7943,
      "▁depart": 7944,
      "▁nob": 7945,
      "▁Take": 7946,
      "▁today.": 7947,
      "▁species,": 7948,
      "▁merc": 7949,
      "▁Const": 7950,
      "▁speaking": 7951,
      "usal": 7952,
      "\nb": 7953,
      "▁kne": 7954,
      "▁courses": 7955,
      "▁well,": 7956,
      "▁edition": 7957,
      "▁Board": 7958,
      "▁vehicles": 7959,
      "▁Acc": 7960,
      "▁ille": 7961,
      "▁houses": 7962,
      "▁furn": 7963,
      "▁school,": 7964,
      "▁holds": 7965,
      "▁controvers": 7966,
      "▁Conn": 7967,
      "▁panel": 7968,
      "▁36": 7969,
      "▁integrated": 7970,
      "▁Access": 7971,
      "▁somewhat": 7972,
      "▁conven": 7973,
      "▁orient": 7974,
      "▁dys": 7975,
      "▁entered": 7976,
      "▁mood": 7977,
      "▁\"I": 7978,
      "▁aband": 7979,
      "stone": 7980,
      "icit": 7981,
      "▁walking": 7982,
      "▁none": 7983,
      "▁branc": 7984,
      "▁destruction": 7985,
      "▁Time": 7986,
      "▁Sant": 7987,
      ".\nBe": 7988,
      "▁blind": 7989,
      "▁“M": 7990,
      "▁historic": 7991,
      "icate": 7992,
      "edy": 7993,
      "print": 7994,
      "▁Before": 7995,
      "▁archae": 7996,
      "herent": 7997,
      "oven": 7998,
      "▁intense": 7999,
      "▁fro": 8000,
      "hent": 8001,
      "son,": 8002,
      "▁receiving": 8003,
      "OL": 8004,
      "▁tick": 8005,
      "▁volcan": 8006,
      "▁marriage": 8007,
      "▁Gree": 8008,
      "aired": 8009,
      "▁Equ": 8010,
      "▁manip": 8011,
      "▁Prop": 8012,
      "▁countries,": 8013,
      "▁hors": 8014,
      "▁Plant": 8015,
      "▁Bab": 8016,
      "▁client": 8017,
      "▁shif": 8018,
      "▁insert": 8019,
      "▁wait": 8020,
      "▁“T": 8021,
      "▁crack": 8022,
      "▁days,": 8023,
      "▁colleagues": 8024,
      "▁advert": 8025,
      "▁cultures": 8026,
      "▁string": 8027,
      "▁(h": 8028,
      "IG": 8029,
      "▁pand": 8030,
      "▁negot": 8031,
      "▁theore": 8032,
      "ener": 8033,
      "▁pharm": 8034,
      "agraph": 8035,
      "▁proportion": 8036,
      "▁1/": 8037,
      "▁conditions,": 8038,
      "▁hazard": 8039,
      "▁bath": 8040,
      "▁category": 8041,
      "▁forg": 8042,
      "▁facility": 8043,
      "inity": 8044,
      "▁Forest": 8045,
      "▁physician": 8046,
      "▁Italian": 8047,
      "▁Academy": 8048,
      "▁Big": 8049,
      "▁strongly": 8050,
      "▁computers": 8051,
      "olt": 8052,
      "▁lands": 8053,
      "▁decade": 8054,
      "▁covers": 8055,
      "▁continuous": 8056,
      "▁influenced": 8057,
      "▁Sil": 8058,
      "▁mask": 8059,
      "eless": 8060,
      "pan": 8061,
      "▁consumers": 8062,
      "▁sensit": 8063,
      "▁metabol": 8064,
      "▁ring": 8065,
      "▁centuries": 8066,
      "elesc": 8067,
      "▁shock": 8068,
      "▁limits": 8069,
      "ities.": 8070,
      "health": 8071,
      "▁meal": 8072,
      "▁Adv": 8073,
      "▁\"the": 8074,
      "▁dioxide": 8075,
      "▁objective": 8076,
      "▁analys": 8077,
      "▁waves": 8078,
      "▁gut": 8079,
      "icious": 8080,
      "▁zone": 8081,
      "▁trouble": 8082,
      "▁paras": 8083,
      "E,": 8084,
      "▁2003": 8085,
      "▁Though": 8086,
      "▁mortality": 8087,
      "▁use,": 8088,
      "▁withd": 8089,
      "▁shoot": 8090,
      "▁committed": 8091,
      "▁subsequent": 8092,
      "▁outcome": 8093,
      "rine": 8094,
      "▁Oxford": 8095,
      "▁composed": 8096,
      "\nto": 8097,
      "▁country,": 8098,
      "▁variable": 8099,
      "▁seas": 8100,
      "itter": 8101,
      "▁turning": 8102,
      "oir": 8103,
      "ons,": 8104,
      "▁ongoing": 8105,
      "▁Effect": 8106,
      "abits": 8107,
      "▁choices": 8108,
      "▁uncertain": 8109,
      "▁cm": 8110,
      "ua": 8111,
      "earing": 8112,
      "▁bones": 8113,
      "▁us,": 8114,
      "▁A,": 8115,
      "▁coffee": 8116,
      "▁seeking": 8117,
      "▁improvement": 8118,
      "▁problems,": 8119,
      "▁Main": 8120,
      "sis": 8121,
      "ada": 8122,
      "▁evaluation": 8123,
      "▁Guide": 8124,
      "▁strict": 8125,
      "▁cycl": 8126,
      "rons": 8127,
      "ifications": 8128,
      "▁detection": 8129,
      "▁problems.": 8130,
      "▁ends": 8131,
      "▁earthqu": 8132,
      "miss": 8133,
      "ini": 8134,
      "▁sharp": 8135,
      "ivered": 8136,
      "▁rely": 8137,
      "▁debate": 8138,
      "▁estimates": 8139,
      "▁fellow": 8140,
      "▁1990": 8141,
      "▁coastal": 8142,
      "▁intest": 8143,
      "86": 8144,
      "▁respiratory": 8145,
      "▁recycl": 8146,
      "▁preventing": 8147,
      "▁contemporary": 8148,
      "ibl": 8149,
      "▁2019": 8150,
      "cycl": 8151,
      "▁domain": 8152,
      "▁reward": 8153,
      "▁Virginia": 8154,
      "▁Naz": 8155,
      "n.": 8156,
      "▁agency": 8157,
      "▁proof": 8158,
      "For": 8159,
      "▁Committee": 8160,
      "anes": 8161,
      "▁cars": 8162,
      "▁home,": 8163,
      "ommod": 8164,
      "34": 8165,
      "ycle": 8166,
      "ensions": 8167,
      "▁arms": 8168,
      "▁merely": 8169,
      "▁mechanisms": 8170,
      "▁injuries": 8171,
      "▁programming": 8172,
      "▁minut": 8173,
      "ulating": 8174,
      "▁agent": 8175,
      "▁Polic": 8176,
      "body": 8177,
      "▁moderate": 8178,
      "▁Ver": 8179,
      "▁evaluate": 8180,
      "▁seemed": 8181,
      "▁plus": 8182,
      "▁America,": 8183,
      "M,": 8184,
      "▁re-": 8185,
      "US": 8186,
      "▁“f": 8187,
      "▁agreed": 8188,
      "ounter": 8189,
      "▁editor": 8190,
      "▁nearby": 8191,
      "Qu": 8192,
      "—the": 8193,
      "▁operate": 8194,
      "yc": 8195,
      "▁desert": 8196,
      "/p": 8197,
      "ides,": 8198,
      "▁molecular": 8199,
      "▁Special": 8200,
      "▁Viet": 8201,
      "▁nose": 8202,
      "▁arrest": 8203,
      "▁driver": 8204,
      "▁Zeal": 8205,
      "/d": 8206,
      "▁agriculture": 8207,
      "▁forth": 8208,
      "▁That’s": 8209,
      "▁approved": 8210,
      "▁renewable": 8211,
      "▁information.": 8212,
      "▁Sat": 8213,
      "▁criminal": 8214,
      "▁Florida": 8215,
      "▁mixt": 8216,
      "▁Sup": 8217,
      "▁(l": 8218,
      "▁runs": 8219,
      "▁regulation": 8220,
      "IR": 8221,
      "▁employed": 8222,
      "ah,": 8223,
      "Go": 8224,
      "▁dependent": 8225,
      "rox": 8226,
      "▁Wal": 8227,
      "ona": 8228,
      "▁consumer": 8229,
      "▁transp": 8230,
      "itudes": 8231,
      "▁silver": 8232,
      "▁Top": 8233,
      "▁commission": 8234,
      "IP": 8235,
      "▁locations": 8236,
      "▁jump": 8237,
      "▁constantly": 8238,
      "▁association": 8239,
      "ig.": 8240,
      "▁emission": 8241,
      "▁development,": 8242,
      "example": 8243,
      "ization,": 8244,
      "▁tall": 8245,
      "▁CO2": 8246,
      "ella": 8247,
      "▁indicated": 8248,
      "\nw": 8249,
      "\nTo": 8250,
      "▁dischar": 8251,
      "▁captured": 8252,
      "55": 8253,
      "▁indeed": 8254,
      "▁asth": 8255,
      "riend": 8256,
      "▁nervous": 8257,
      "▁infant": 8258,
      "▁more.": 8259,
      "▁burning": 8260,
      "isdom": 8261,
      "▁conclus": 8262,
      "▁copper": 8263,
      "mm": 8264,
      "▁reader": 8265,
      "▁irrit": 8266,
      "▁TV": 8267,
      "ympt": 8268,
      "▁bomb": 8269,
      "▁6.": 8270,
      "▁asking": 8271,
      "ohyd": 8272,
      "▁students,": 8273,
      "▁book,": 8274,
      "▁orbit": 8275,
      "▁agencies": 8276,
      "▁compris": 8277,
      "ears": 8278,
      "▁Face": 8279,
      "▁networks": 8280,
      "▁plenty": 8281,
      "▁incred": 8282,
      "▁appeal": 8283,
      "▁Hy": 8284,
      "fortunately,": 8285,
      "▁Asian": 8286,
      "born": 8287,
      "▁considering": 8288,
      "▁debt": 8289,
      "77": 8290,
      "▁wast": 8291,
      "▁desired": 8292,
      "iness,": 8293,
      "▁Dar": 8294,
      "ented": 8295,
      "▁can't": 8296,
      "sen": 8297,
      "▁Pak": 8298,
      "▁evil": 8299,
      "▁loved": 8300,
      "sets": 8301,
      "▁(as": 8302,
      "▁spending": 8303,
      "▁deploy": 8304,
      "▁herb": 8305,
      "▁defect": 8306,
      "zed": 8307,
      "LA": 8308,
      "8)": 8309,
      "▁judg": 8310,
      "▁chest": 8311,
      "ala": 8312,
      "▁District": 8313,
      "▁breed": 8314,
      "▁outd": 8315,
      "▁mice": 8316,
      "▁Check": 8317,
      "▁Open": 8318,
      "inning": 8319,
      "df": 8320,
      "▁Zealand": 8321,
      "▁bringing": 8322,
      "▁fung": 8323,
      "amber": 8324,
      "▁180": 8325,
      "▁not,": 8326,
      "▁University,": 8327,
      "▁stable": 8328,
      "▁favorite": 8329,
      "▁Company": 8330,
      "▁senior": 8331,
      "▁31": 8332,
      "▁AP": 8333,
      "eut": 8334,
      "▁exclus": 8335,
      "uses": 8336,
      "▁channel": 8337,
      "▁slavery": 8338,
      "▁sought": 8339,
      "▁correl": 8340,
      "▁excessive": 8341,
      "▁plot": 8342,
      "▁chlor": 8343,
      "▁inn": 8344,
      "ovascular": 8345,
      "▁tal": 8346,
      "▁radi": 8347,
      "▁instructions": 8348,
      "▁facing": 8349,
      "▁today,": 8350,
      "chen": 8351,
      "▁e.": 8352,
      "▁Young": 8353,
      "▁forests": 8354,
      "ollowing": 8355,
      "itting": 8356,
      "/20": 8357,
      "▁mone": 8358,
      "-scale": 8359,
      "heric": 8360,
      "▁opposed": 8361,
      "▁destroyed": 8362,
      "ota": 8363,
      "▁history.": 8364,
      "▁id": 8365,
      "▁Tre": 8366,
      "▁Mel": 8367,
      "▁usual": 8368,
      "▁tut": 8369,
      "▁Bill": 8370,
      "▁independence": 8371,
      "▁Who": 8372,
      "▁focuses": 8373,
      "arsh": 8374,
      "ommon": 8375,
      "▁decor": 8376,
      "▁says,": 8377,
      "using": 8378,
      "▁worksh": 8379,
      "▁insurance": 8380,
      "▁prohib": 8381,
      "▁Po": 8382,
      "▁era": 8383,
      "▁dealing": 8384,
      "stein": 8385,
      "▁Str": 8386,
      "ka": 8387,
      "▁sail": 8388,
      "▁Rock": 8389,
      "-F": 8390,
      "eli": 8391,
      "▁5,": 8392,
      "▁fourth": 8393,
      "▁List": 8394,
      "▁use.": 8395,
      "▁dynamic": 8396,
      "istical": 8397,
      "▁empt": 8398,
      "ctor": 8399,
      "iral": 8400,
      ".\nDuring": 8401,
      "▁phosph": 8402,
      "▁Change": 8403,
      "▁realize": 8404,
      "▁temple": 8405,
      "state": 8406,
      "ston": 8407,
      "ords": 8408,
      "▁transact": 8409,
      "ogether": 8410,
      "▁exists": 8411,
      "31": 8412,
      "▁border": 8413,
      "%)": 8414,
      "ita": 8415,
      "incol": 8416,
      "▁Among": 8417,
      "▁delivered": 8418,
      "▁abnormal": 8419,
      "E.": 8420,
      "▁worry": 8421,
      "▁racial": 8422,
      "▁carrying": 8423,
      "▁voltage": 8424,
      "▁radical": 8425,
      "▁overw": 8426,
      "\nAl": 8427,
      "▁defense": 8428,
      "▁inher": 8429,
      "▁Secret": 8430,
      "▁acute": 8431,
      "▁Despite": 8432,
      "lets": 8433,
      "ishop": 8434,
      "▁butter": 8435,
      "ults": 8436,
      "▁lip": 8437,
      "▁papers": 8438,
      "day,": 8439,
      "▁guard": 8440,
      "▁fairly": 8441,
      "▁2001": 8442,
      "▁newly": 8443,
      "▁judge": 8444,
      "▁dose": 8445,
      "▁Grand": 8446,
      "inson": 8447,
      "▁Family": 8448,
      "He": 8449,
      "▁Non": 8450,
      "▁Moreover,": 8451,
      "▁mining": 8452,
      "▁level,": 8453,
      "▁fiber": 8454,
      "▁Resp": 8455,
      "▁housing": 8456,
      "▁technology,": 8457,
      "▁turb": 8458,
      "▁tea": 8459,
      "-level": 8460,
      "kes": 8461,
      "▁mm": 8462,
      "ators,": 8463,
      "▁Imm": 8464,
      "▁conclusion": 8465,
      "▁constructed": 8466,
      "▁Centre": 8467,
      "▁Atlantic": 8468,
      "▁layers": 8469,
      "▁Princ": 8470,
      "▁unusual": 8471,
      "▁flour": 8472,
      "▁branch": 8473,
      "▁presents": 8474,
      "▁possible.": 8475,
      ".”\nThe": 8476,
      "▁Mer": 8477,
      "▁Indust": 8478,
      "▁treating": 8479,
      ".\n1.": 8480,
      "▁on.": 8481,
      "▁thanks": 8482,
      "▁breathing": 8483,
      "▁expansion": 8484,
      "▁substantial": 8485,
      "rowing": 8486,
      "rant": 8487,
      "▁passage": 8488,
      "▁AND": 8489,
      "▁clar": 8490,
      "▁distributed": 8491,
      "▁artist": 8492,
      "▁spectrum": 8493,
      "BS": 8494,
      "▁cells,": 8495,
      "▁gradually": 8496,
      "ives.": 8497,
      "▁contribution": 8498,
      "▁regulations": 8499,
      "▁data.": 8500,
      "▁Quest": 8501,
      "▁partnership": 8502,
      "▁intervent": 8503,
      "▁galax": 8504,
      "i)": 8505,
      "▁400": 8506,
      "▁satellite": 8507,
      ".\nWhy": 8508,
      "▁principal": 8509,
      "▁trigger": 8510,
      "▁considerable": 8511,
      "▁characterized": 8512,
      "▁God,": 8513,
      "▁absence": 8514,
      "▁Article": 8515,
      "▁enforce": 8516,
      "▁Swed": 8517,
      "▁synthes": 8518,
      "▁deeper": 8519,
      "▁Does": 8520,
      "▁“We": 8521,
      "▁tons": 8522,
      "▁nitrogen": 8523,
      "▁lake": 8524,
      "▁Angel": 8525,
      "ounce": 8526,
      "▁Ep": 8527,
      "eople": 8528,
      "▁Figure": 8529,
      "▁modified": 8530,
      "▁laid": 8531,
      "\nHow": 8532,
      "▁ov": 8533,
      "\nV": 8534,
      "▁essentially": 8535,
      "▁environment,": 8536,
      "▁comments": 8537,
      "▁32": 8538,
      "iary": 8539,
      "▁outer": 8540,
      "▁citizen": 8541,
      "▁roughly": 8542,
      "▁tip": 8543,
      "▁camera": 8544,
      "▁Den": 8545,
      "▁proven": 8546,
      "abeth": 8547,
      "▁Ireland": 8548,
      ".\nRes": 8549,
      "▁one.": 8550,
      "▁home.": 8551,
      "▁structural": 8552,
      "▁areas,": 8553,
      "▁Language": 8554,
      "▁connections": 8555,
      "▁that's": 8556,
      "ases.": 8557,
      "▁engaged": 8558,
      "indu": 8559,
      "▁rac": 8560,
      "▁defend": 8561,
      "▁observations": 8562,
      "'m": 8563,
      "/0": 8564,
      "▁proved": 8565,
      "▁compounds": 8566,
      "alm": 8567,
      "▁combat": 8568,
      "nut": 8569,
      "▁“b": 8570,
      "▁explanation": 8571,
      "-E": 8572,
      "▁grid": 8573,
      "yal": 8574,
      "ads": 8575,
      "▁aims": 8576,
      "aked": 8577,
      "▁lock": 8578,
      "85": 8579,
      "▁on,": 8580,
      "▁installed": 8581,
      "oids": 8582,
      "anda": 8583,
      "▁variation": 8584,
      "▁presentation": 8585,
      "▁unw": 8586,
      "▁experimental": 8587,
      "▁hun": 8588,
      "▁decreased": 8589,
      "la": 8590,
      "▁Community": 8591,
      "▁Paris": 8592,
      "hyd": 8593,
      "ie,": 8594,
      "▁rarely": 8595,
      "▁robot": 8596,
      "▁finished": 8597,
      "▁stead": 8598,
      "▁ended": 8599,
      ".\nMost": 8600,
      "▁scientist": 8601,
      "▁serving": 8602,
      "▁concerning": 8603,
      "ently,": 8604,
      "umes": 8605,
      "▁participation": 8606,
      "▁taste": 8607,
      ".\nOther": 8608,
      "▁prominent": 8609,
      "▁Micro": 8610,
      "▁sess": 8611,
      "wing": 8612,
      "haust": 8613,
      "▁carri": 8614,
      "▁germ": 8615,
      "▁Rom": 8616,
      "ora": 8617,
      "rene": 8618,
      "▁mold": 8619,
      "▁anywhere": 8620,
      "▁stre": 8621,
      "▁satisf": 8622,
      "ination,": 8623,
      "▁family,": 8624,
      "▁passing": 8625,
      ".\nThat": 8626,
      "▁Heb": 8627,
      "▁challenging": 8628,
      "including": 8629,
      "▁owners": 8630,
      "ommun": 8631,
      "▁crew": 8632,
      "89": 8633,
      "iah": 8634,
      "▁config": 8635,
      "▁are,": 8636,
      "▁one’s": 8637,
      "▁signed": 8638,
      "▁gained": 8639,
      "▁funds": 8640,
      "ograp": 8641,
      "▁Dou": 8642,
      "▁extend": 8643,
      "▁serves": 8644,
      "ables,": 8645,
      "▁Road": 8646,
      "▁democra": 8647,
      "▁observe": 8648,
      "▁insulin": 8649,
      "▁vessels": 8650,
      "▁women,": 8651,
      "▁\"B": 8652,
      "▁\"M": 8653,
      "▁equally": 8654,
      "▁“d": 8655,
      "▁suffered": 8656,
      "▁manifest": 8657,
      "▁sky": 8658,
      "▁pestic": 8659,
      "▁confirmed": 8660,
      "▁attempts": 8661,
      "▁Furthermore,": 8662,
      "▁subt": 8663,
      "▁pregnant": 8664,
      "▁knowing": 8665,
      "▁place.": 8666,
      "zheim": 8667,
      "▁punish": 8668,
      "▁powers": 8669,
      "ics.": 8670,
      "▁compens": 8671,
      "▁brush": 8672,
      "airy": 8673,
      "▁proceed": 8674,
      "▁Fund": 8675,
      "apse": 8676,
      "▁writer": 8677,
      "iability": 8678,
      "▁exceed": 8679,
      "▁Cast": 8680,
      "▁(V": 8681,
      "▁swim": 8682,
      "▁Jac": 8683,
      "▁effectiveness": 8684,
      "unicip": 8685,
      "esis": 8686,
      "▁2002": 8687,
      "76": 8688,
      "▁kilomet": 8689,
      "▁eliminate": 8690,
      "▁USA": 8691,
      "▁breeding": 8692,
      "▁fest": 8693,
      "▁claimed": 8694,
      "▁tropical": 8695,
      "▁reactions": 8696,
      "▁Lar": 8697,
      "▁therefore,": 8698,
      "▁“p": 8699,
      "▁“m": 8700,
      "har": 8701,
      "▁measurement": 8702,
      "▁cash": 8703,
      "▁encouraged": 8704,
      "▁honor": 8705,
      "▁“C": 8706,
      "▁period,": 8707,
      "▁rab": 8708,
      "vironments": 8709,
      "isters": 8710,
      "▁ourselves": 8711,
      "IA": 8712,
      "▁giant": 8713,
      "▁disturb": 8714,
      "▁accommod": 8715,
      "▁lie": 8716,
      "▁ordered": 8717,
      "▁smoking": 8718,
      "abulary": 8719,
      "▁up.": 8720,
      "▁machines": 8721,
      "▁Mult": 8722,
      "▁tap": 8723,
      "▁state,": 8724,
      "yles": 8725,
      "▁supplies": 8726,
      "▁Sund": 8727,
      "▁driven": 8728,
      "▁moves": 8729,
      "\nK": 8730,
      "just": 8731,
      "itarian": 8732,
      "coming": 8733,
      "oured": 8734,
      "otton": 8735,
      "ious,": 8736,
      "▁universal": 8737,
      "▁neighborhood": 8738,
      "▁Christmas": 8739,
      "▁coron": 8740,
      "RC": 8741,
      "▁Sign": 8742,
      "▁disrupt": 8743,
      "▁Method": 8744,
      "▁192": 8745,
      "ator,": 8746,
      "▁route": 8747,
      "IM": 8748,
      "▁(K": 8749,
      "▁assume": 8750,
      "▁conditions.": 8751,
      "▁Security": 8752,
      "▁vote": 8753,
      "▁explos": 8754,
      "ontin": 8755,
      "/c": 8756,
      "class": 8757,
      "ube": 8758,
      "▁transportation": 8759,
      "▁sus": 8760,
      "ostic": 8761,
      "▁philosophy": 8762,
      "▁acids": 8763,
      "brid": 8764,
      "▁scar": 8765,
      "▁interpre": 8766,
      "▁conj": 8767,
      "izer": 8768,
      "▁strengthen": 8769,
      "▁employment": 8770,
      "▁informed": 8771,
      "▁insight": 8772,
      "▁mg": 8773,
      "▁Bost": 8774,
      "▁(such": 8775,
      "ioxid": 8776,
      "▁recommendations": 8777,
      "@example": 8778,
      "▁ships": 8779,
      "▁accompan": 8780,
      "asm": 8781,
      "ocation": 8782,
      "d.": 8783,
      "▁Wall": 8784,
      "▁Super": 8785,
      "▁Four": 8786,
      "▁interactions": 8787,
      "ustain": 8788,
      "gans": 8789,
      "▁Coast": 8790,
      "ieval": 8791,
      "ulty": 8792,
      "▁Find": 8793,
      "elfare": 8794,
      "\nt": 8795,
      "▁significance": 8796,
      "▁Sir": 8797,
      "▁missing": 8798,
      "rous": 8799,
      "▁bacterial": 8800,
      "▁Edward": 8801,
      "▁development.": 8802,
      "▁Jul": 8803,
      "▁schedu": 8804,
      "▁(e.g.": 8805,
      "▁customers": 8806,
      "▁Hill": 8807,
      "▁photo": 8808,
      "▁1950": 8809,
      "▁\"C": 8810,
      "▁gro": 8811,
      "▁conqu": 8812,
      "sey": 8813,
      "▁scan": 8814,
      "▁cong": 8815,
      "▁cort": 8816,
      "▁profit": 8817,
      "olving": 8818,
      "▁players": 8819,
      "▁diagram": 8820,
      "ooking": 8821,
      "▁earliest": 8822,
      "▁Minister": 8823,
      "▁Exam": 8824,
      "▁Martin": 8825,
      "▁athlet": 8826,
      "otal": 8827,
      "▁(5": 8828,
      "vard": 8829,
      "▁peop": 8830,
      "▁worship": 8831,
      "oted": 8832,
      "▁Low": 8833,
      "95": 8834,
      "▁again,": 8835,
      "▁substances": 8836,
      "▁Dev": 8837,
      "▁trials": 8838,
      "ortion": 8839,
      "net": 8840,
      "▁Author": 8841,
      "OC": 8842,
      "▁you’ve": 8843,
      "▁hormone": 8844,
      "-called": 8845,
      "ogram": 8846,
      "zym": 8847,
      "▁stuff": 8848,
      "▁fed": 8849,
      "▁Today": 8850,
      "▁change.": 8851,
      "▁sections": 8852,
      "▁Additionally,": 8853,
      "ontal": 8854,
      "▁steam": 8855,
      "▁quarter": 8856,
      "▁ye": 8857,
      "▁Yet": 8858,
      "rey": 8859,
      "▁us.": 8860,
      "▁Supreme": 8861,
      "▁change,": 8862,
      "▁assigned": 8863,
      "▁pit": 8864,
      "ruption": 8865,
      "▁Similar": 8866,
      "▁well-be": 8867,
      "syl": 8868,
      "▁emotions": 8869,
      "▁Please": 8870,
      "▁seal": 8871,
      "▁ton": 8872,
      "▁damaged": 8873,
      "▁terror": 8874,
      "▁blocks": 8875,
      "▁hence": 8876,
      "▁slave": 8877,
      "▁Never": 8878,
      "▁collaboration": 8879,
      "▁wheel": 8880,
      "—and": 8881,
      "▁Three": 8882,
      "▁heating": 8883,
      "▁superior": 8884,
      "▁draft": 8885,
      "▁recover": 8886,
      "ression,": 8887,
      "▁nom": 8888,
      "izabeth": 8889,
      "▁meters": 8890,
      "▁overcome": 8891,
      "▁elected": 8892,
      "▁inspired": 8893,
      "▁removal": 8894,
      "▁faced": 8895,
      "▁coverage": 8896,
      "▁initially": 8897,
      "rection": 8898,
      "▁there,": 8899,
      "soft": 8900,
      "▁me,": 8901,
      "▁enorm": 8902,
      "▁county": 8903,
      "acco": 8904,
      "▁Ut": 8905,
      "onia": 8906,
      "esh": 8907,
      "▁ceremon": 8908,
      "▁measuring": 8909,
      "▁7.": 8910,
      "▁seat": 8911,
      "ent.": 8912,
      "RA": 8913,
      "▁maintained": 8914,
      "▁zero": 8915,
      "▁suscept": 8916,
      "sylvan": 8917,
      "▁(for": 8918,
      "▁Jo": 8919,
      "▁categories": 8920,
      "▁organisms": 8921,
      "▁inhabit": 8922,
      ".\nMore": 8923,
      "oric": 8924,
      "▁paragraph": 8925,
      "▁pain,": 8926,
      "▁epis": 8927,
      "▁children’s": 8928,
      "▁guidance": 8929,
      "▁cattle": 8930,
      "▁language,": 8931,
      "▁architecture": 8932,
      "forest": 8933,
      "▁rit": 8934,
      "▁acquired": 8935,
      "atial": 8936,
      "▁advantages": 8937,
      "▁rose": 8938,
      "▁sunlight": 8939,
      "▁brows": 8940,
      "opher": 8941,
      "▁engineer": 8942,
      "▁printed": 8943,
      "▁Resources": 8944,
      "▁les": 8945,
      "▁instruments": 8946,
      "▁uniform": 8947,
      "▁conce": 8948,
      "▁3:": 8949,
      "▁Lead": 8950,
      "▁entr": 8951,
      "▁Valley": 8952,
      "▁habits": 8953,
      "▁Lincol": 8954,
      "s;": 8955,
      "ENT": 8956,
      "iders": 8957,
      "▁heavily": 8958,
      "▁maybe": 8959,
      "roat": 8960,
      "ulations": 8961,
      "▁students.": 8962,
      "▁indigenous": 8963,
      "▁corner": 8964,
      "▁moisture": 8965,
      "▁Ohio": 8966,
      "▁“P": 8967,
      "▁examination": 8968,
      "▁Ol": 8969,
      "▁pros": 8970,
      "▁worst": 8971,
      "▁grain": 8972,
      "▁maps": 8973,
      "▁implications": 8974,
      "▁Hospital": 8975,
      "▁boys": 8976,
      "▁asc": 8977,
      "▁abilities": 8978,
      "▁conference": 8979,
      "▁Er": 8980,
      "▁theories": 8981,
      "ogenic": 8982,
      "OM": 8983,
      "▁assert": 8984,
      "▁frame": 8985,
      "ibb": 8986,
      "▁war,": 8987,
      "▁babies": 8988,
      "▁cells.": 8989,
      "▁alph": 8990,
      "angered": 8991,
      "▁)": 8992,
      "L,": 8993,
      "▁Spain": 8994,
      "gien": 8995,
      "▁magaz": 8996,
      "▁dietary": 8997,
      "▁Jun": 8998,
      "▁behaviors": 8999,
      "▁bigger": 9000,
      "▁crime": 9001,
      "▁Sand": 9002,
      "▁(4": 9003,
      "▁adverse": 9004,
      "▁Jeff": 9005,
      "▁victims": 9006,
      "▁disabilities": 9007,
      "ocial": 9008,
      "etary": 9009,
      "▁narrative": 9010,
      "▁theme": 9011,
      "▁musical": 9012,
      "▁here,": 9013,
      "▁roles": 9014,
      "▁other.": 9015,
      "▁cats": 9016,
      "rint": 9017,
      "▁there.": 9018,
      "hus": 9019,
      "▁Start": 9020,
      "irds": 9021,
      ".\nAd": 9022,
      "▁doi:10.": 9023,
      "▁cancer,": 9024,
      "▁rice": 9025,
      "ola": 9026,
      "▁Alzheim": 9027,
      "▁legislation": 9028,
      "ruit": 9029,
      "itory": 9030,
      "▁Oper": 9031,
      "▁;": 9032,
      "▁Cambridge": 9033,
      "▁Hand": 9034,
      "▁mode": 9035,
      "ersonal": 9036,
      "▁tag": 9037,
      "▁Men": 9038,
      "▁sup": 9039,
      "▁positions": 9040,
      "?\nS": 9041,
      "▁aged": 9042,
      "asant": 9043,
      "▁resid": 9044,
      "▁measurements": 9045,
      "▁plants,": 9046,
      "mond": 9047,
      "▁biom": 9048,
      "urning": 9049,
      "operation": 9050,
      "▁newspaper": 9051,
      "ry.": 9052,
      "▁usage": 9053,
      "etime": 9054,
      "▁reaching": 9055,
      "▁Pot": 9056,
      "uber": 9057,
      "▁innovative": 9058,
      "SS": 9059,
      "▁Light": 9060,
      "ch,": 9061,
      "▁oldest": 9062,
      "encing": 9063,
      "▁coc": 9064,
      "\nYou": 9065,
      "▁cleaning": 9066,
      "▁pandemic": 9067,
      "▁Ca": 9068,
      "▁identifying": 9069,
      "▁“W": 9070,
      "▁problem.": 9071,
      "▁inequ": 9072,
      "▁place,": 9073,
      "66": 9074,
      "▁Less": 9075,
      "▁Well": 9076,
      "▁flower": 9077,
      "ady": 9078,
      "▁confident": 9079,
      "▁Liter": 9080,
      "▁stake": 9081,
      "▁Sar": 9082,
      "umps": 9083,
      "▁hardware": 9084,
      "▁caught": 9085,
      "▁curren": 9086,
      "ographical": 9087,
      "▁cord": 9088,
      "▁escape": 9089,
      "writ": 9090,
      "▁incident": 9091,
      "iration": 9092,
      "▁environments": 9093,
      "▁planned": 9094,
      "▁colonial": 9095,
      "▁insects": 9096,
      "▁relie": 9097,
      "raining": 9098,
      "▁6,": 9099,
      "▁van": 9100,
      "▁adm": 9101,
      "▁fatty": 9102,
      "▁protecting": 9103,
      "▁controls": 9104,
      "eers": 9105,
      "▁exercises": 9106,
      "▁lymph": 9107,
      "▁password": 9108,
      "▁Type": 9109,
      "▁occas": 9110,
      "▁vertical": 9111,
      "▁advis": 9112,
      "▁descript": 9113,
      "▁array": 9114,
      "▁Math": 9115,
      "79": 9116,
      "▁Current": 9117,
      "▁preparation": 9118,
      "▁Nov": 9119,
      "▁vel": 9120,
      "▁stronger": 9121,
      "▁authent": 9122,
      "▁Fire": 9123,
      ".\n5.": 9124,
      "▁Table": 9125,
      "-ch": 9126,
      "▁viewed": 9127,
      "last": 9128,
      "asters": 9129,
      "ours": 9130,
      "-12": 9131,
      "▁publication": 9132,
      "',": 9133,
      "adder": 9134,
      "athered": 9135,
      "▁ampl": 9136,
      "▁implemented": 9137,
      "▁advent": 9138,
      "▁mir": 9139,
      "▁screening": 9140,
      "ions.": 9141,
      "▁rect": 9142,
      "▁affecting": 9143,
      "?\"": 9144,
      "▁CP": 9145,
      "▁Safety": 9146,
      "▁contributed": 9147,
      "erb": 9148,
      "▁systems.": 9149,
      "▁Hall": 9150,
      "▁covering": 9151,
      "night": 9152,
      "▁tube": 9153,
      "▁sitting": 9154,
      "▁scene": 9155,
      "▁Mah": 9156,
      "▁mosquit": 9157,
      "▁imagine": 9158,
      "▁exhaust": 9159,
      "▁rational": 9160,
      "▁angle": 9161,
      "icular": 9162,
      "oler": 9163,
      "▁polar": 9164,
      "▁criteria": 9165,
      "▁enemy": 9166,
      "s,\"": 9167,
      "▁Father": 9168,
      "▁preced": 9169,
      "▁jur": 9170,
      "▁boat": 9171,
      "lock": 9172,
      "▁Ur": 9173,
      "▁examined": 9174,
      "▁so-called": 9175,
      "▁Party": 9176,
      "▁emphasis": 9177,
      "▁Neu": 9178,
      "igare": 9179,
      "▁pond": 9180,
      "▁Protection": 9181,
      ".\nUn": 9182,
      "ecess": 9183,
      "▁finds": 9184,
      "sing": 9185,
      "▁Chapter": 9186,
      "▁Francisc": 9187,
      "▁regardless": 9188,
      "usalem": 9189,
      "ning,": 9190,
      "▁surge": 9191,
      "▁protective": 9192,
      "▁pin": 9193,
      "-r": 9194,
      "▁Right": 9195,
      "▁AM": 9196,
      "▁Instead,": 9197,
      "uten": 9198,
      "▁Lim": 9199,
      "▁too.": 9200,
      "▁personality": 9201,
      "employ": 9202,
      "▁mathematical": 9203,
      "▁Set": 9204,
      "sell": 9205,
      "▁counsel": 9206,
      "▁tob": 9207,
      "ds": 9208,
      "quir": 9209,
      "▁Michig": 9210,
      "▁overwhel": 9211,
      "ants.": 9212,
      "▁quiet": 9213,
      "requ": 9214,
      "ctu": 9215,
      "▁days.": 9216,
      "oul": 9217,
      "▁complicated": 9218,
      "▁which,": 9219,
      "▁Bul": 9220,
      "▁Kar": 9221,
      "▁isolated": 9222,
      "▁matters": 9223,
      ".\n\"The": 9224,
      "▁thermal": 9225,
      "▁Modern": 9226,
      "plete": 9227,
      "▁Cell": 9228,
      "▁Hebrew": 9229,
      "▁enables": 9230,
      "▁\"T": 9231,
      "▁power,": 9232,
      ".\nFrom": 9233,
      "▁partners": 9234,
      "-N": 9235,
      "▁Ven": 9236,
      "▁regarded": 9237,
      "▁Online": 9238,
      "▁clock": 9239,
      "▁fatig": 9240,
      "▁simult": 9241,
      "isted": 9242,
      "peror": 9243,
      "▁yog": 9244,
      "▁areas.": 9245,
      "amics": 9246,
      "▁and\n": 9247,
      "orne": 9248,
      "oz": 9249,
      "▁IV": 9250,
      "],": 9251,
      "▁Dom": 9252,
      "▁Last": 9253,
      "▁comfortable": 9254,
      "▁Amaz": 9255,
      "ar.": 9256,
      "▁hall": 9257,
      "▁chemistry": 9258,
      "▁verb": 9259,
      "pecific": 9260,
      "▁Pennsylvan": 9261,
      "▁literary": 9262,
      "▁males": 9263,
      "▁humid": 9264,
      "apor": 9265,
      "▁circumstances": 9266,
      "gers": 9267,
      "▁level.": 9268,
      "▁parad": 9269,
      "-W": 9270,
      "achuse": 9271,
      "▁in.": 9272,
      "▁genet": 9273,
      "▁\"P": 9274,
      "▁tor": 9275,
      "▁Tom": 9276,
      "TP": 9277,
      "▁automatically": 9278,
      "▁banks": 9279,
      "▁experiencing": 9280,
      "olesc": 9281,
      "no": 9282,
      "▁Moon": 9283,
      "▁amazing": 9284,
      "▁formula": 9285,
      "▁consume": 9286,
      "▁Ken": 9287,
      "▁technological": 9288,
      "▁crown": 9289,
      "▁Typ": 9290,
      "▁Services": 9291,
      "rt": 9292,
      "▁directed": 9293,
      "▁science,": 9294,
      "▁aimed": 9295,
      "▁visitors": 9296,
      "▁Facebook": 9297,
      "▁Without": 9298,
      "▁Scholar": 9299,
      "▁evolved": 9300,
      "rison": 9301,
      "42": 9302,
      "/m": 9303,
      "▁multi": 9304,
      "▁transmit": 9305,
      "▁alarm": 9306,
      "hematic": 9307,
      "▁Chicago": 9308,
      "ildren": 9309,
      "▁Cat": 9310,
      "▁65": 9311,
      "▁all.": 9312,
      "▁neutral": 9313,
      "▁odd": 9314,
      "▁Rh": 9315,
      "▁Carolina": 9316,
      "ife,": 9317,
      "▁preserve": 9318,
      "▁Islam": 9319,
      "▁Europe,": 9320,
      "▁Mr": 9321,
      "▁ensuring": 9322,
      "advant": 9323,
      "▁rhyth": 9324,
      "▁MS": 9325,
      "▁Note": 9326,
      "opyright": 9327,
      "ailable": 9328,
      "ulpt": 9329,
      "eness": 9330,
      "asty": 9331,
      "▁carbohyd": 9332,
      "kins": 9333,
      "▁falls": 9334,
      "▁accomplish": 9335,
      "▁point,": 9336,
      "▁comprom": 9337,
      "▁God’s": 9338,
      "▁obesity": 9339,
      "iety,": 9340,
      "\n1": 9341,
      "more": 9342,
      "▁75": 9343,
      "▁cyber": 9344,
      "▁interface": 9345,
      "c.": 9346,
      "▁quantum": 9347,
      "▁ordinary": 9348,
      "▁Heart": 9349,
      "icing": 9350,
      "▁spaces": 9351,
      "▁possible,": 9352,
      "▁Dutch": 9353,
      "▁Battle": 9354,
      "▁television": 9355,
      "▁buried": 9356,
      "▁artists": 9357,
      "▁fashion": 9358,
      "▁Back": 9359,
      "ually,": 9360,
      "▁killing": 9361,
      "▁drought": 9362,
      "▁concluded": 9363,
      "iner": 9364,
      "▁landscap": 9365,
      "order": 9366,
      "▁cardiovascular": 9367,
      "▁Down": 9368,
      "▁thereby": 9369,
      "▁introduce": 9370,
      "▁“It": 9371,
      "▁sales": 9372,
      "▁calling": 9373,
      "▁Assess": 9374,
      "osis,": 9375,
      "vin": 9376,
      "▁opposition": 9377,
      "▁Palest": 9378,
      "uality": 9379,
      "EE": 9380,
      "▁Corn": 9381,
      "▁adopt": 9382,
      "▁bless": 9383,
      "▁Pen": 9384,
      "▁above,": 9385,
      "adel": 9386,
      "rub": 9387,
      "▁earn": 9388,
      "ates.": 9389,
      "▁mitig": 9390,
      "▁elder": 9391,
      "orted": 9392,
      "inder": 9393,
      "▁didn't": 9394,
      "▁abstract": 9395,
      "rade": 9396,
      "html": 9397,
      "tles": 9398,
      "▁messages": 9399,
      "▁ster": 9400,
      "▁other,": 9401,
      "ures,": 9402,
      "▁tong": 9403,
      "▁initiative": 9404,
      "▁gast": 9405,
      "▁trick": 9406,
      "▁Try": 9407,
      "▁plain": 9408,
      "▁rh": 9409,
      "ic.": 9410,
      "▁Agency": 9411,
      "▁outdoor": 9412,
      "R.": 9413,
      "▁Imp": 9414,
      "pert": 9415,
      "▁session": 9416,
      "▁saving": 9417,
      "▁Queen": 9418,
      "▁button": 9419,
      "ani": 9420,
      "▁restric": 9421,
      "mal": 9422,
      "▁more,": 9423,
      "43": 9424,
      "M.": 9425,
      "raq": 9426,
      "▁detected": 9427,
      "▁beliefs": 9428,
      "ugg": 9429,
      "▁antioxid": 9430,
      "▁1,000": 9431,
      "▁forming": 9432,
      "▁Times": 9433,
      "▁propag": 9434,
      "▁geomet": 9435,
      "iger": 9436,
      "▁surg": 9437,
      "▁ingredients": 9438,
      "▁Jerusalem": 9439,
      "▁ritual": 9440,
      "▁demands": 9441,
      "▁variables": 9442,
      "▁females": 9443,
      "▁energy,": 9444,
      "arbon": 9445,
      "▁generations": 9446,
      "▁men,": 9447,
      "ested": 9448,
      "▁“t": 9449,
      "▁dil": 9450,
      "▁wisdom": 9451,
      "rix": 9452,
      "▁dollars": 9453,
      "▁society.": 9454,
      "▁general,": 9455,
      "▁exhibit": 9456,
      "col": 9457,
      "▁Ins": 9458,
      "▁substit": 9459,
      "▁intent": 9460,
[...]
